{
  "version": "1.0",
  "truncation": null,
  "padding": null,
  "added_tokens": [],
  "normalizer": {
    "type": "Sequence",
    "normalizers": [
      {
        "type": "NFD"
      },
      {
        "type": "Lowercase"
      },
      {
        "type": "StripAccents"
      }
    ]
  },
  "pre_tokenizer": {
    "type": "Whitespace"
  },
  "post_processor": null,
  "decoder": null,
  "model": {
    "type": "BPE",
    "dropout": null,
    "unk_token": null,
    "continuing_subword_prefix": null,
    "end_of_word_suffix": null,
    "fuse_unk": false,
    "byte_fallback": false,
    "ignore_merges": false,
    "vocab": {
      "!": 0,
      "\"": 1,
      "#": 2,
      "$": 3,
      "%": 4,
      "&": 5,
      "'": 6,
      "(": 7,
      ")": 8,
      "*": 9,
      "+": 10,
      ",": 11,
      "-": 12,
      ".": 13,
      "/": 14,
      "0": 15,
      "1": 16,
      "2": 17,
      "3": 18,
      "4": 19,
      "5": 20,
      "6": 21,
      "7": 22,
      "8": 23,
      "9": 24,
      ":": 25,
      ";": 26,
      "<": 27,
      "=": 28,
      ">": 29,
      "?": 30,
      "@": 31,
      "[": 32,
      "\\": 33,
      "]": 34,
      "^": 35,
      "_": 36,
      "`": 37,
      "a": 38,
      "b": 39,
      "c": 40,
      "d": 41,
      "e": 42,
      "f": 43,
      "g": 44,
      "h": 45,
      "i": 46,
      "j": 47,
      "k": 48,
      "l": 49,
      "m": 50,
      "n": 51,
      "o": 52,
      "p": 53,
      "q": 54,
      "r": 55,
      "s": 56,
      "t": 57,
      "u": 58,
      "v": 59,
      "w": 60,
      "x": 61,
      "y": 62,
      "z": 63,
      "{": 64,
      "|": 65,
      "}": 66,
      "~": 67,
      "": 68,
      "¡": 69,
      "£": 70,
      "­": 71,
      "²": 72,
      "´": 73,
      "º": 74,
      "½": 75,
      "¿": 76,
      "ß": 77,
      "ø": 78,
      "​": 79,
      "–": 80,
      "—": 81,
      "‘": 82,
      "’": 83,
      "“": 84,
      "”": 85,
      "•": 86,
      "…": 87,
      "′": 88,
      "″": 89,
      "€": 90,
      "™": 91,
      "☑": 92,
      "➡": 93,
      "th": 94,
      "in": 95,
      "er": 96,
      "an": 97,
      "on": 98,
      "the": 99,
      "re": 100,
      "at": 101,
      "en": 102,
      "or": 103,
      "st": 104,
      "ed": 105,
      "al": 106,
      "to": 107,
      "ing": 108,
      "ou": 109,
      "is": 110,
      "it": 111,
      "ar": 112,
      "es": 113,
      "as": 114,
      "ic": 115,
      "of": 116,
      "and": 117,
      "ion": 118,
      "le": 119,
      "id": 120,
      "ent": 121,
      "om": 122,
      "il": 123,
      "se": 124,
      "ac": 125,
      "tr": 126,
      "be": 127,
      "ad": 128,
      "he": 129,
      "for": 130,
      "ve": 131,
      "am": 132,
      "wh": 133,
      "ly": 134,
      "that": 135,
      "de": 136,
      "ot": 137,
      "im": 138,
      "ay": 139,
      "ch": 140,
      "um": 141,
      "ig": 142,
      "ol": 143,
      "ter": 144,
      "ow": 145,
      "un": 146,
      "res": 147,
      "pr": 148,
      "ver": 149,
      "ation": 150,
      "ur": 151,
      "con": 152,
      "sa": 153,
      "us": 154,
      "ir": 155,
      "op": 156,
      "ge": 157,
      "ump": 158,
      "ill": 159,
      "ate": 160,
      "ce": 161,
      "trump": 162,
      "ne": 163,
      "ut": 164,
      "ld": 165,
      "we": 166,
      "wi": 167,
      "ct": 168,
      "mo": 169,
      "ab": 170,
      "pe": 171,
      "com": 172,
      "said": 173,
      "ers": 174,
      "with": 175,
      "li": 176,
      "was": 177,
      "ment": 178,
      "are": 179,
      "fr": 180,
      "su": 181,
      "ha": 182,
      "ke": 183,
      "ist": 184,
      "ag": 185,
      "out": 186,
      "ther": 187,
      "cl": 188,
      "pres": 189,
      "all": 190,
      "cou": 191,
      "by": 192,
      "ul": 193,
      "bl": 194,
      "cr": 195,
      "his": 196,
      "sh": 197,
      "ain": 198,
      "over": 199,
      "not": 200,
      "ex": 201,
      "has": 202,
      "ts": 203,
      "em": 204,
      "po": 205,
      "ap": 206,
      "ia": 207,
      "rep": 208,
      "art": 209,
      "ial": 210,
      "pro": 211,
      "ident": 212,
      "so": 213,
      "pl": 214,
      "if": 215,
      "igh": 216,
      "have": 217,
      "ity": 218,
      "from": 219,
      "one": 220,
      "la": 221,
      "ican": 222,
      "day": 223,
      "this": 224,
      "ould": 225,
      "ack": 226,
      "who": 227,
      "ere": 228,
      "end": 229,
      "el": 230,
      "ies": 231,
      "president": 232,
      "af": 233,
      "iv": 234,
      "ob": 235,
      "our": 236,
      "man": 237,
      "ive": 238,
      "ary": 239,
      "they": 240,
      "gr": 241,
      "ust": 242,
      "but": 243,
      "int": 244,
      "ort": 245,
      "ess": 246,
      "do": 247,
      "pol": 248,
      "20": 249,
      "ak": 250,
      "fe": 251,
      "act": 252,
      "ubl": 253,
      "off": 254,
      "ign": 255,
      "ie": 256,
      "ant": 257,
      "br": 258,
      "au": 259,
      "new": 260,
      "part": 261,
      "wor": 262,
      "ore": 263,
      "don": 264,
      "me": 265,
      "would": 266,
      "est": 267,
      "der": 268,
      "ear": 269,
      "qu": 270,
      "will": 271,
      "ice": 272,
      "you": 273,
      "oo": 274,
      "ber": 275,
      "gh": 276,
      "min": 277,
      "ud": 278,
      "ian": 279,
      "up": 280,
      "ight": 281,
      "ters": 282,
      "no": 283,
      "ions": 284,
      "per": 285,
      "about": 286,
      "pa": 287,
      "state": 288,
      "ich": 289,
      "ide": 290,
      "ome": 291,
      "red": 292,
      "coun": 293,
      "had": 294,
      "ally": 295,
      "pp": 296,
      "ence": 297,
      "their": 298,
      "oun": 299,
      "os": 300,
      "201": 301,
      "now": 302,
      "ele": 303,
      "republ": 304,
      "ates": 305,
      "ass": 306,
      "republican": 307,
      "ite": 308,
      "oc": 309,
      "ta": 310,
      "ong": 311,
      "her": 312,
      "str": 313,
      "ous": 314,
      "its": 315,
      "iz": 316,
      "dis": 317,
      "peop": 318,
      "att": 319,
      "ev": 320,
      "people": 321,
      "form": 322,
      "ard": 323,
      "more": 324,
      "been": 325,
      "year": 326,
      "tim": 327,
      "cam": 328,
      "cent": 329,
      "after": 330,
      "say": 331,
      "sen": 332,
      "she": 333,
      "were": 334,
      "comm": 335,
      "some": 336,
      "tw": 337,
      "ated": 338,
      "any": 339,
      "amer": 340,
      "sec": 341,
      "ough": 342,
      "can": 343,
      "overn": 344,
      "ations": 345,
      "which": 346,
      "govern": 347,
      "other": 348,
      "age": 349,
      "cor": 350,
      "ma": 351,
      "ald": 352,
      "own": 353,
      "te": 354,
      "go": 355,
      "co": 356,
      "med": 357,
      "just": 358,
      "ser": 359,
      "ction": 360,
      "et": 361,
      "mar": 362,
      "sp": 363,
      "itic": 364,
      "inter": 365,
      "uss": 366,
      "ind": 367,
      "mon": 368,
      "leg": 369,
      "vot": 370,
      "donald": 371,
      "law": 372,
      "get": 373,
      "ll": 374,
      "ace": 375,
      "ks": 376,
      "ire": 377,
      "what": 378,
      "ine": 379,
      "obam": 380,
      "bo": 381,
      "him": 382,
      "king": 383,
      "00": 384,
      "pos": 385,
      "ip": 386,
      "hou": 387,
      "fore": 388,
      "when": 389,
      "there": 390,
      "ound": 391,
      "demo": 392,
      "ast": 393,
      "nation": 394,
      "pre": 395,
      "uters": 396,
      "ile": 397,
      "thing": 398,
      "democr": 399,
      "ra": 400,
      "like": 401,
      "reuters": 402,
      "inton": 403,
      "clinton": 404,
      "fir": 405,
      "also": 406,
      "ib": 407,
      "ited": 408,
      "very": 409,
      "house": 410,
      "ans": 411,
      "minist": 412,
      "spe": 413,
      "fl": 414,
      "government": 415,
      "ding": 416,
      "than": 417,
      "sc": 418,
      "ree": 419,
      "way": 420,
      "again": 421,
      "offic": 422,
      "ure": 423,
      "democrat": 424,
      "supp": 425,
      "ty": 426,
      "call": 427,
      "ade": 428,
      "obama": 429,
      "try": 430,
      "ress": 431,
      "ance": 432,
      "fa": 433,
      "uc": 434,
      "lead": 435,
      "how": 436,
      "hing": 437,
      "ose": 438,
      "cau": 439,
      "russ": 440,
      "ition": 441,
      "states": 442,
      "ked": 443,
      "them": 444,
      "ret": 445,
      "sy": 446,
      "ro": 447,
      ",”": 448,
      "could": 449,
      "pt": 450,
      "cour": 451,
      "fer": 452,
      "paign": 453,
      "campaign": 454,
      "ish": 455,
      "ton": 456,
      "ren": 457,
      "bill": 458,
      "american": 459,
      "ang": 460,
      "back": 461,
      "enc": 462,
      "able": 463,
      "ue": 464,
      "reg": 465,
      "ors": 466,
      "oll": 467,
      "national": 468,
      "politic": 469,
      "cause": 470,
      "comp": 471,
      "white": 472,
      "ef": 473,
      "eral": 474,
      "ens": 475,
      "united": 476,
      "old": 477,
      "ict": 478,
      "under": 479,
      "into": 480,
      "ied": 481,
      "ry": 482,
      "time": 483,
      "jo": 484,
      "told": 485,
      "wee": 486,
      "vis": 487,
      "did": 488,
      "election": 489,
      "ell": 490,
      "ood": 491,
      "serv": 492,
      "ration": 493,
      "ase": 494,
      "vi": 495,
      "reat": 496,
      "official": 497,
      "against": 498,
      "dec": 499,
      "dr": 500,
      "war": 501,
      "come": 502,
      "nor": 503,
      "my": 504,
      "ann": 505,
      "know": 506,
      "two": 507,
      "because": 508,
      "ep": 509,
      "vie": 510,
      "cont": 511,
      "last": 512,
      "sel": 513,
      "most": 514,
      "esday": 515,
      "lear": 516,
      "party": 517,
      "cial": 518,
      "isl": 519,
      "may": 520,
      "ory": 521,
      "gress": 522,
      "ach": 523,
      "news": 524,
      "mil": 525,
      "iss": 526,
      "ful": 527,
      "hill": 528,
      "ail": 529,
      "incl": 530,
      "cted": 531,
      "put": 532,
      "many": 533,
      "uring": 534,
      "vest": 535,
      "even": 536,
      "ting": 537,
      "ative": 538,
      "av": 539,
      "vide": 540,
      "oup": 541,
      "first": 542,
      "par": 543,
      "see": 544,
      "group": 545,
      "invest": 546,
      "fin": 547,
      "car": 548,
      "only": 549,
      "tal": 550,
      "bet": 551,
      "while": 552,
      "gu": 553,
      "view": 554,
      "ince": 555,
      "pon": 556,
      "ame": 557,
      "washing": 558,
      "should": 559,
      "wom": 560,
      "washington": 561,
      "hel": 562,
      "inc": 563,
      "work": 564,
      "ning": 565,
      "ph": 566,
      "des": 567,
      "hillary": 568,
      "former": 569,
      "air": 570,
      "country": 571,
      "mak": 572,
      "ents": 573,
      "contr": 574,
      "milit": 575,
      "ted": 576,
      "bus": 577,
      "cer": 578,
      "prot": 579,
      "ins": 580,
      "read": 581,
      "used": 582,
      "support": 583,
      "ating": 584,
      "ban": 585,
      "rel": 586,
      "publ": 587,
      "being": 588,
      "mem": 589,
      "lo": 590,
      "cess": 591,
      "vel": 592,
      "tur": 593,
      "down": 594,
      "alth": 595,
      "imp": 596,
      "show": 597,
      "wat": 598,
      "add": 599,
      "tax": 600,
      "ants": 601,
      "report": 602,
      "mill": 603,
      "gen": 604,
      "where": 605,
      "ica": 606,
      "during": 607,
      "order": 608,
      "before": 609,
      "years": 610,
      "ities": 611,
      "includ": 612,
      "thin": 613,
      "je": 614,
      "ina": 615,
      "secur": 616,
      "attack": 617,
      "percent": 618,
      "(@": 619,
      "every": 620,
      "ments": 621,
      "need": 622,
      "right": 623,
      "ces": 624,
      "security": 625,
      "bar": 626,
      ".”": 627,
      "als": 628,
      "court": 629,
      "led": 630,
      "congress": 631,
      "lim": 632,
      "week": 633,
      "erson": 634,
      "respon": 635,
      "republicans": 636,
      "mu": 637,
      "real": 638,
      "fed": 639,
      "fun": 640,
      "ange": 641,
      "quest": 642,
      "want": 643,
      "thr": 644,
      "sch": 645,
      "ick": 646,
      "administ": 647,
      "video": 648,
      "made": 649,
      "ope": 650,
      "commit": 651,
      "ious": 652,
      "make": 653,
      "russia": 654,
      "media": 655,
      "itter": 656,
      "def": 657,
      "going": 658,
      "ism": 659,
      "main": 660,
      "political": 661,
      "accor": 662,
      "bi": 663,
      "then": 664,
      "those": 665,
      "too": 666,
      "ower": 667,
      "month": 668,
      "since": 669,
      "police": 670,
      "north": 671,
      "ste": 672,
      "public": 673,
      "issu": 674,
      "wr": 675,
      "ists": 676,
      "presidential": 677,
      "prov": 678,
      "head": 679,
      "does": 680,
      "gan": 681,
      "tu": 682,
      "ild": 683,
      "twitter": 684,
      "mig": 685,
      "bu": 686,
      "well": 687,
      "ook": 688,
      "cut": 689,
      "ger": 690,
      "senate": 691,
      "investig": 692,
      "aim": 693,
      "terr": 694,
      "vote": 695,
      "administration": 696,
      "long": 697,
      "vers": 698,
      "ency": 699,
      "oper": 700,
      "ned": 701,
      "democratic": 702,
      "ator": 703,
      "ref": 704,
      "polic": 705,
      "stand": 706,
      "char": 707,
      "du": 708,
      "ult": 709,
      "ives": 710,
      "press": 711,
      "ible": 712,
      "help": 713,
      "ds": 714,
      "ased": 715,
      "according": 716,
      "these": 717,
      "called": 718,
      "son": 719,
      "here": 720,
      "cons": 721,
      "cap": 722,
      "ever": 723,
      "ise": 724,
      "world": 725,
      "says": 726,
      "let": 727,
      "cand": 728,
      "2016": 729,
      "dire": 730,
      "take": 731,
      "kore": 732,
      "miss": 733,
      "via": 734,
      "got": 735,
      "think": 736,
      "meet": 737,
      "candid": 738,
      "spo": 739,
      "self": 740,
      "such": 741,
      "jor": 742,
      "use": 743,
      "col": 744,
      "bre": 745,
      "ms": 746,
      "point": 747,
      "ween": 748,
      "tain": 749,
      "har": 750,
      "post": 751,
      "secret": 752,
      "between": 753,
      "repor": 754,
      "cur": 755,
      "america": 756,
      "depart": 757,
      "wed": 758,
      "mat": 759,
      "foreign": 760,
      "fam": 761,
      "oy": 762,
      "ctions": 763,
      "tak": 764,
      "2017": 765,
      "officials": 766,
      "ical": 767,
      "ving": 768,
      "including": 769,
      "fo": 770,
      "appe": 771,
      "care": 772,
      "ured": 773,
      "ced": 774,
      "kes": 775,
      "office": 776,
      "ves": 777,
      "mus": 778,
      "den": 779,
      "syr": 780,
      "military": 781,
      "your": 782,
      "ution": 783,
      "gy": 784,
      "nom": 785,
      "set": 786,
      "sur": 787,
      "oss": 788,
      "crim": 789,
      "ual": 790,
      "ily": 791,
      "russian": 792,
      "ights": 793,
      "19": 794,
      "million": 795,
      "sign": 796,
      "feat": 797,
      "run": 798,
      "present": 799,
      "federal": 800,
      "health": 801,
      "statement": 802,
      "pay": 803,
      "iness": 804,
      "viol": 805,
      "major": 806,
      "deal": 807,
      "kill": 808,
      "ner": 809,
      "gest": 810,
      "ft": 811,
      "beli": 812,
      "prom": 813,
      "land": 814,
      "high": 815,
      "bers": 816,
      "ward": 817,
      "sou": 818,
      "through": 819,
      "conom": 820,
      "di": 821,
      "econom": 822,
      "ah": 823,
      "ctor": 824,
      "big": 825,
      "ared": 826,
      "ged": 827,
      "contin": 828,
      "department": 829,
      "fact": 830,
      "saying": 831,
      "power": 832,
      "china": 833,
      "reas": 834,
      "business": 835,
      "person": 836,
      "less": 837,
      "move": 838,
      "eur": 839,
      "gl": 840,
      "tuesday": 841,
      "image": 842,
      "clear": 843,
      "ior": 844,
      "ief": 845,
      "urs": 846,
      "critic": 847,
      "000": 848,
      "watch": 849,
      "lin": 850,
      "sure": 851,
      "legal": 852,
      "iran": 853,
      "immig": 854,
      "rest": 855,
      "still": 856,
      "iday": 857,
      "women": 858,
      "minister": 859,
      "claim": 860,
      "far": 861,
      "ri": 862,
      "san": 863,
      "ility": 864,
      "conserv": 865,
      "dy": 866,
      "both": 867,
      "commun": 868,
      "committe": 869,
      "plan": 870,
      "muslim": 871,
      "ized": 872,
      "owing": 873,
      "aren": 874,
      "wedn": 875,
      "wednesday": 876,
      "io": 877,
      "ble": 878,
      "much": 879,
      "jud": 880,
      "hand": 881,
      "dep": 882,
      "az": 883,
      "win": 884,
      "ven": 885,
      "black": 886,
      "ho": 887,
      "pic": 888,
      "democrats": 889,
      "force": 890,
      "islam": 891,
      "ath": 892,
      "terror": 893,
      "ved": 894,
      "sub": 895,
      "found": 896,
      "thurs": 897,
      "thursday": 898,
      "nex": 899,
      "prop": 900,
      "rul": 901,
      "acc": 902,
      "pect": 903,
      "vol": 904,
      "friday": 905,
      "another": 906,
      "hn": 907,
      "ought": 908,
      "face": 909,
      "deb": 910,
      "hum": 911,
      "ork": 912,
      "happ": 913,
      "city": 914,
      "chr": 915,
      "ave": 916,
      "general": 917,
      "committee": 918,
      "leaders": 919,
      "ings": 920,
      "policy": 921,
      "asked": 922,
      "three": 923,
      "secretary": 924,
      "disc": 925,
      "korea": 926,
      "rele": 927,
      "ash": 928,
      "mc": 929,
      "rights": 930,
      "stit": 931,
      "threat": 932,
      "line": 933,
      "foll": 934,
      "ru": 935,
      "monday": 936,
      "position": 937,
      "list": 938,
      "protest": 939,
      "ten": 940,
      "che": 941,
      "speak": 942,
      "stru": 943,
      "next": 944,
      "featured": 945,
      "good": 946,
      "sour": 947,
      "left": 948,
      "app": 949,
      "poll": 950,
      "prim": 951,
      "child": 952,
      "represent": 953,
      "suppor": 954,
      "ital": 955,
      "poss": 956,
      "york": 957,
      "americans": 958,
      "uary": 959,
      "num": 960,
      "gun": 961,
      "ually": 962,
      "lar": 963,
      "job": 964,
      "loc": 965,
      "whe": 966,
      "thor": 967,
      "ending": 968,
      "mit": 969,
      "ster": 970,
      "200": 971,
      "ready": 972,
      "gram": 973,
      "ars": 974,
      "ages": 975,
      "uge": 976,
      "ps": 977,
      "ular": 978,
      "iate": 979,
      "europe": 980,
      "why": 981,
      "fac": 982,
      "ider": 983,
      "pass": 984,
      "ional": 985,
      "change": 986,
      "decis": 987,
      "ney": 988,
      "cal": 989,
      "ech": 990,
      "atives": 991,
      "times": 992,
      "open": 993,
      "ired": 994,
      "recent": 995,
      "leader": 996,
      "cond": 997,
      "won": 998,
      "senator": 999,
      "john": 1000,
      "trans": 1001,
      "fort": 1002,
      "program": 1003,
      "email": 1004,
      "never": 1005,
      "inform": 1006,
      "spokes": 1007,
      "acy": 1008,
      "low": 1009,
      "concer": 1010,
      "case": 1011,
      "dist": 1012,
      "eng": 1013,
      "..": 1014,
      "whether": 1015,
      "por": 1016,
      "key": 1017,
      "mber": 1018,
      "vent": 1019,
      "top": 1020,
      "organ": 1021,
      "tle": 1022,
      "nn": 1023,
      "ons": 1024,
      "sit": 1025,
      "bro": 1026,
      "ext": 1027,
      "dif": 1028,
      "members": 1029,
      "came": 1030,
      "rac": 1031,
      "interview": 1032,
      "candidate": 1033,
      "ns": 1034,
      "author": 1035,
      "aff": 1036,
      "billion": 1037,
      "ix": 1038,
      "prote": 1039,
      "same": 1040,
      "net": 1041,
      "iled": 1042,
      "play": 1043,
      "mer": 1044,
      "lit": 1045,
      "ize": 1046,
      "cit": 1047,
      "around": 1048,
      "agree": 1049,
      "ca": 1050,
      "tries": 1051,
      "cru": 1052,
      "stud": 1053,
      "oney": 1054,
      "cover": 1055,
      "keep": 1056,
      "ject": 1057,
      "ju": 1058,
      "ices": 1059,
      "stem": 1060,
      "allow": 1061,
      "late": 1062,
      "ided": 1063,
      "cre": 1064,
      "jan": 1065,
      "lies": 1066,
      "south": 1067,
      "legisl": 1068,
      "lat": 1069,
      "acr": 1070,
      "near": 1071,
      "sol": 1072,
      "meeting": 1073,
      "stop": 1074,
      "uclear": 1075,
      "side": 1076,
      "brit": 1077,
      "fect": 1078,
      "sent": 1079,
      "sun": 1080,
      "aq": 1081,
      "fight": 1082,
      "ians": 1083,
      "ended": 1084,
      "sever": 1085,
      "mex": 1086,
      "reported": 1087,
      "bor": 1088,
      "aring": 1089,
      "start": 1090,
      "ense": 1091,
      "anti": 1092,
      "woman": 1093,
      "nuclear": 1094,
      "amp": 1095,
      "using": 1096,
      "unt": 1097,
      "ship": 1098,
      "reed": 1099,
      "tra": 1100,
      "voters": 1101,
      "likely": 1102,
      "speech": 1103,
      "cy": 1104,
      "ool": 1105,
      "trade": 1106,
      "giv": 1107,
      "without": 1108,
      "men": 1109,
      "ded": 1110,
      "human": 1111,
      "dem": 1112,
      "money": 1113,
      "wa": 1114,
      "cept": 1115,
      "vir": 1116,
      "justice": 1117,
      "ference": 1118,
      "alleg": 1119,
      "great": 1120,
      "fbi": 1121,
      "sm": 1122,
      "decl": 1123,
      "ised": 1124,
      "took": 1125,
      "countries": 1126,
      "iraq": 1127,
      "ale": 1128,
      "ines": 1129,
      "ific": 1130,
      "investigation": 1131,
      "chief": 1132,
      "exe": 1133,
      "system": 1134,
      "les": 1135,
      "port": 1136,
      "mor": 1137,
      "ico": 1138,
      "intell": 1139,
      "depend": 1140,
      "intellig": 1141,
      "eu": 1142,
      "ploy": 1143,
      "really": 1144,
      "place": 1145,
      "pop": 1146,
      "school": 1147,
      "sus": 1148,
      "sand": 1149,
      "ago": 1150,
      "curren": 1151,
      "liber": 1152,
      "pected": 1153,
      "member": 1154,
      "10": 1155,
      "uck": 1156,
      "ges": 1157,
      "execut": 1158,
      "christ": 1159,
      "ified": 1160,
      "hist": 1161,
      "bur": 1162,
      "adv": 1163,
      "consider": 1164,
      "syria": 1165,
      "ck": 1166,
      "intelligence": 1167,
      "four": 1168,
      "free": 1169,
      "ral": 1170,
      "ush": 1171,
      "days": 1172,
      "tell": 1173,
      "social": 1174,
      "information": 1175,
      "decision": 1176,
      "discuss": 1177,
      "plain": 1178,
      "repe": 1179,
      "interest": 1180,
      "arch": 1181,
      "hol": 1182,
      "cum": 1183,
      "must": 1184,
      "action": 1185,
      "fox": 1186,
      "reen": 1187,
      "coming": 1188,
      "isis": 1189,
      "sex": 1190,
      "announ": 1191,
      "already": 1192,
      "close": 1193,
      "home": 1194,
      "international": 1195,
      "life": 1196,
      "priv": 1197,
      "ened": 1198,
      "family": 1199,
      "prof": 1200,
      "ank": 1201,
      "requ": 1202,
      "vious": 1203,
      "olo": 1204,
      "comment": 1205,
      "book": 1206,
      "ote": 1207,
      "isra": 1208,
      "hold": 1209,
      "control": 1210,
      "tar": 1211,
      "refuge": 1212,
      "groups": 1213,
      "ators": 1214,
      "conservative": 1215,
      "civ": 1216,
      "tro": 1217,
      "soc": 1218,
      "agency": 1219,
      "however": 1220,
      "among": 1221,
      "several": 1222,
      "ute": 1223,
      "loo": 1224,
      "lawmak": 1225,
      "director": 1226,
      "crimin": 1227,
      "test": 1228,
      "ben": 1229,
      "ock": 1230,
      "arr": 1231,
      "ures": 1232,
      "weet": 1233,
      "ling": 1234,
      "ides": 1235,
      "atur": 1236,
      "hal": 1237,
      "question": 1238,
      "fron": 1239,
      "supre": 1240,
      "uni": 1241,
      "propos": 1242,
      "wall": 1243,
      "gin": 1244,
      "border": 1245,
      "eve": 1246,
      "islamic": 1247,
      "ier": 1248,
      "ential": 1249,
      "ug": 1250,
      "val": 1251,
      "fur": 1252,
      "economic": 1253,
      "step": 1254,
      "independ": 1255,
      "ket": 1256,
      "something": 1257,
      "supporters": 1258,
      "sanders": 1259,
      "months": 1260,
      "rup": 1261,
      "civil": 1262,
      "bud": 1263,
      "une": 1264,
      "organiz": 1265,
      "children": 1266,
      "nomine": 1267,
      "though": 1268,
      "current": 1269,
      "finan": 1270,
      "stre": 1271,
      "ties": 1272,
      "thers": 1273,
      "remain": 1274,
      "aug": 1275,
      "doesn": 1276,
      "host": 1277,
      "sho": 1278,
      "things": 1279,
      "ament": 1280,
      "pat": 1281,
      "might": 1282,
      "issue": 1283,
      "posed": 1284,
      "lot": 1285,
      "ered": 1286,
      "exper": 1287,
      "import": 1288,
      "proble": 1289,
      "idence": 1290,
      "making": 1291,
      "ris": 1292,
      "night": 1293,
      "seen": 1294,
      "doing": 1295,
      "cruz": 1296,
      "didn": 1297,
      "find": 1298,
      "immigration": 1299,
      "seem": 1300,
      "ham": 1301,
      "lier": 1302,
      "cu": 1303,
      "nam": 1304,
      "today": 1305,
      "past": 1306,
      "ined": 1307,
      "mid": 1308,
      "look": 1309,
      "constit": 1310,
      "kel": 1311,
      "advis": 1312,
      "chair": 1313,
      "bs": 1314,
      "march": 1315,
      "working": 1316,
      "sunday": 1317,
      "yet": 1318,
      "ness": 1319,
      "killed": 1320,
      "away": 1321,
      "least": 1322,
      "believe": 1323,
      "held": 1324,
      "ands": 1325,
      "employ": 1326,
      "number": 1327,
      "hard": 1328,
      "tweet": 1329,
      "retur": 1330,
      "fair": 1331,
      "mic": 1332,
      "barack": 1333,
      "nal": 1334,
      "activ": 1335,
      "attacks": 1336,
      "unch": 1337,
      "possible": 1338,
      "bab": 1339,
      "based": 1340,
      "reporters": 1341,
      "matter": 1342,
      "east": 1343,
      "invol": 1344,
      "citiz": 1345,
      "known": 1346,
      "mi": 1347,
      "defense": 1348,
      "forces": 1349,
      "pot": 1350,
      "trying": 1351,
      "pal": 1352,
      "ony": 1353,
      "added": 1354,
      "give": 1355,
      "governor": 1356,
      "later": 1357,
      "appro": 1358,
      "continu": 1359,
      "few": 1360,
      "earlier": 1361,
      "colle": 1362,
      "confir": 1363,
      "spokesman": 1364,
      "mass": 1365,
      "story": 1366,
      "mal": 1367,
      "chang": 1368,
      "break": 1369,
      "exp": 1370,
      "bas": 1371,
      "docum": 1372,
      "compan": 1373,
      "coal": 1374,
      "lad": 1375,
      "himself": 1376,
      "talks": 1377,
      "recor": 1378,
      "level": 1379,
      "orney": 1380,
      "attorney": 1381,
      "accoun": 1382,
      "comple": 1383,
      "aw": 1384,
      "ways": 1385,
      "rece": 1386,
      "uk": 1387,
      "gop": 1388,
      "nominee": 1389,
      "expected": 1390,
      "actually": 1391,
      "imate": 1392,
      "ken": 1393,
      "ify": 1394,
      "fri": 1395,
      "until": 1396,
      "und": 1397,
      "process": 1398,
      "little": 1399,
      "ics": 1400,
      "executive": 1401,
      "rants": 1402,
      "nomin": 1403,
      "15": 1404,
      "senior": 1405,
      "ht": 1406,
      "rupt": 1407,
      "opposition": 1408,
      "team": 1409,
      "friend": 1410,
      "sl": 1411,
      "european": 1412,
      "cnn": 1413,
      "iting": 1414,
      "lawmakers": 1415,
      "tow": 1416,
      "vict": 1417,
      "cost": 1418,
      "strong": 1419,
      "majority": 1420,
      "class": 1421,
      "saud": 1422,
      "prime": 1423,
      "violence": 1424,
      "ran": 1425,
      "arrest": 1426,
      "ived": 1427,
      "afr": 1428,
      "ili": 1429,
      "refer": 1430,
      "second": 1431,
      "went": 1432,
      "ys": 1433,
      "pris": 1434,
      "insur": 1435,
      "mexico": 1436,
      "mean": 1437,
      "mes": 1438,
      "once": 1439,
      "sanctions": 1440,
      "certain": 1441,
      "nothing": 1442,
      "los": 1443,
      "front": 1444,
      "empt": 1445,
      "30": 1446,
      "negot": 1447,
      "),": 1448,
      "comes": 1449,
      "ury": 1450,
      "become": 1451,
      "ished": 1452,
      "january": 1453,
      "univers": 1454,
      "arab": 1455,
      "issues": 1456,
      "anger": 1457,
      "company": 1458,
      "buil": 1459,
      "sug": 1460,
      "shoot": 1461,
      "ude": 1462,
      "partic": 1463,
      "taking": 1464,
      "cas": 1465,
      "request": 1466,
      "rob": 1467,
      "staff": 1468,
      "companies": 1469,
      "mr": 1470,
      "peace": 1471,
      "reform": 1472,
      "union": 1473,
      "inste": 1474,
      "aged": 1475,
      "pen": 1476,
      "sept": 1477,
      "fire": 1478,
      "death": 1479,
      "devel": 1480,
      "dra": 1481,
      "nations": 1482,
      "pur": 1483,
      "july": 1484,
      "financial": 1485,
      "pan": 1486,
      "non": 1487,
      "nove": 1488,
      "rad": 1489,
      "wants": 1490,
      "constitution": 1491,
      "judge": 1492,
      "sing": 1493,
      "2015": 1494,
      "local": 1495,
      "11": 1496,
      "conne": 1497,
      "images": 1498,
      "ability": 1499,
      "november": 1500,
      "event": 1501,
      "istan": 1502,
      "ground": 1503,
      "infl": 1504,
      "wal": 1505,
      "ny": 1506,
      "body": 1507,
      "budget": 1508,
      "safe": 1509,
      "private": 1510,
      "source": 1511,
      "saudi": 1512,
      "better": 1513,
      "dom": 1514,
      "reason": 1515,
      "shot": 1516,
      "enough": 1517,
      "debate": 1518,
      "21": 1519,
      "bank": 1520,
      "cast": 1521,
      "supreme": 1522,
      "desp": 1523,
      "special": 1524,
      "hom": 1525,
      "following": 1526,
      "continue": 1527,
      "given": 1528,
      "suggest": 1529,
      "hip": 1530,
      "suc": 1531,
      "sk": 1532,
      "search": 1533,
      "meas": 1534,
      "full": 1535,
      "mediate": 1536,
      "bad": 1537,
      "duct": 1538,
      "others": 1539,
      "five": 1540,
      "legislation": 1541,
      "kur": 1542,
      "fil": 1543,
      "along": 1544,
      "donaldtrump": 1545,
      "important": 1546,
      "best": 1547,
      "course": 1548,
      "room": 1549,
      "further": 1550,
      "hop": 1551,
      "large": 1552,
      "done": 1553,
      "reports": 1554,
      "del": 1555,
      "fav": 1556,
      "israel": 1557,
      "ically": 1558,
      "dam": 1559,
      "develop": 1560,
      "plom": 1561,
      "realdonaldtrump": 1562,
      "diplom": 1563,
      "regul": 1564,
      "despite": 1565,
      "putin": 1566,
      "coll": 1567,
      "short": 1568,
      "tail": 1569,
      "released": 1570,
      "travel": 1571,
      "parli": 1572,
      "differ": 1573,
      "respons": 1574,
      "ging": 1575,
      "messa": 1576,
      "ert": 1577,
      "weap": 1578,
      "plann": 1579,
      "name": 1580,
      "history": 1581,
      "across": 1582,
      "race": 1583,
      "taken": 1584,
      "illegal": 1585,
      "parliament": 1586,
      "plans": 1587,
      "pho": 1588,
      "wrote": 1589,
      "fut": 1590,
      "follow": 1591,
      "hour": 1592,
      "immediate": 1593,
      "center": 1594,
      "having": 1595,
      "response": 1596,
      "bel": 1597,
      "previous": 1598,
      "visit": 1599,
      "ugh": 1600,
      "dan": 1601,
      "chall": 1602,
      "hur": 1603,
      "div": 1604,
      "ryan": 1605,
      "ple": 1606,
      "thern": 1607,
      "ones": 1608,
      "ped": 1609,
      "htt": 1610,
      "glob": 1611,
      "community": 1612,
      "cat": 1613,
      "vic": 1614,
      "rich": 1615,
      "direct": 1616,
      "cle": 1617,
      "hind": 1618,
      "bc": 1619,
      "//": 1620,
      "ops": 1621,
      "comments": 1622,
      "bass": 1623,
      "agreement": 1624,
      "crisis": 1625,
      "50": 1626,
      "geor": 1627,
      "satur": 1628,
      "wing": 1629,
      "ga": 1630,
      "cil": 1631,
      "jour": 1632,
      "syrian": 1633,
      "tex": 1634,
      "ord": 1635,
      "protect": 1636,
      "saturday": 1637,
      "bal": 1638,
      "strate": 1639,
      "evidence": 1640,
      "prosec": 1641,
      "serious": 1642,
      "ba": 1643,
      "sal": 1644,
      "instead": 1645,
      "capital": 1646,
      "indust": 1647,
      "june": 1648,
      "ball": 1649,
      "foc": 1650,
      "comey": 1651,
      "bring": 1652,
      "feel": 1653,
      "six": 1654,
      "getty": 1655,
      "university": 1656,
      "distr": 1657,
      "britain": 1658,
      "term": 1659,
      "conference": 1660,
      "region": 1661,
      "forts": 1662,
      "half": 1663,
      "negoti": 1664,
      "lawy": 1665,
      "effect": 1666,
      "water": 1667,
      "youn": 1668,
      "efforts": 1669,
      "due": 1670,
      "future": 1671,
      "early": 1672,
      "12": 1673,
      "mur": 1674,
      "address": 1675,
      "toward": 1676,
      "jer": 1677,
      "sha": 1678,
      "relig": 1679,
      "ering": 1680,
      "reach": 1681,
      "qual": 1682,
      "letter": 1683,
      "vo": 1684,
      "global": 1685,
      "approv": 1686,
      "screen": 1687,
      "dle": 1688,
      "jam": 1689,
      "tru": 1690,
      "council": 1691,
      "turn": 1692,
      "mis": 1693,
      "accept": 1694,
      "dead": 1695,
      "rew": 1696,
      "ik": 1697,
      "anything": 1698,
      "aid": 1699,
      "broad": 1700,
      "accused": 1701,
      "van": 1702,
      "uel": 1703,
      "descr": 1704,
      "mark": 1705,
      "bom": 1706,
      "bul": 1707,
      "hit": 1708,
      "sul": 1709,
      "anyone": 1710,
      "bush": 1711,
      "believ": 1712,
      "west": 1713,
      "spec": 1714,
      "ening": 1715,
      "facebook": 1716,
      "cred": 1717,
      "review": 1718,
      "refugees": 1719,
      "behind": 1720,
      "paul": 1721,
      "target": 1722,
      "push": 1723,
      "simp": 1724,
      "fly": 1725,
      "star": 1726,
      "rem": 1727,
      "appoint": 1728,
      "potential": 1729,
      "tele": 1730,
      "trad": 1731,
      "acare": 1732,
      "ida": 1733,
      "lives": 1734,
      "role": 1735,
      "obamacare": 1736,
      "diplomat": 1737,
      "ali": 1738,
      "photo": 1739,
      "ention": 1740,
      "fall": 1741,
      "thous": 1742,
      "ately": 1743,
      "sess": 1744,
      "within": 1745,
      "rule": 1746,
      "ient": 1747,
      "texas": 1748,
      "journal": 1749,
      "ither": 1750,
      "healthcare": 1751,
      "jobs": 1752,
      "indiv": 1753,
      "arent": 1754,
      "struct": 1755,
      "flor": 1756,
      "dou": 1757,
      "ask": 1758,
      "hate": 1759,
      "complete": 1760,
      "assa": 1761,
      "tober": 1762,
      "economy": 1763,
      "oil": 1764,
      "nat": 1765,
      "getting": 1766,
      "ker": 1767,
      "october": 1768,
      "assoc": 1769,
      "isn": 1770,
      "sim": 1771,
      "ission": 1772,
      "attempt": 1773,
      "uses": 1774,
      "coalition": 1775,
      "rules": 1776,
      "nie": 1777,
      "pose": 1778,
      "ibility": 1779,
      "individ": 1780,
      "wrong": 1781,
      "tech": 1782,
      "sources": 1783,
      "votes": 1784,
      "small": 1785,
      "://": 1786,
      "someone": 1787,
      "sum": 1788,
      "conf": 1789,
      "florida": 1790,
      "running": 1791,
      "https": 1792,
      "vision": 1793,
      "elections": 1794,
      "muslims": 1795,
      "ya": 1796,
      "service": 1797,
      "chairman": 1798,
      "calling": 1799,
      "live": 1800,
      "stat": 1801,
      "ler": 1802,
      "ford": 1803,
      "middle": 1804,
      "access": 1805,
      "weeks": 1806,
      "na": 1807,
      "clos": 1808,
      "incre": 1809,
      "hack": 1810,
      "commission": 1811,
      "calls": 1812,
      "kind": 1813,
      "army": 1814,
      "ley": 1815,
      "itions": 1816,
      "ming": 1817,
      "fail": 1818,
      "freed": 1819,
      "ilar": 1820,
      "voting": 1821,
      "candidates": 1822,
      "stern": 1823,
      "board": 1824,
      "turkey": 1825,
      "entire": 1826,
      "building": 1827,
      "nearly": 1828,
      "effort": 1829,
      "regard": 1830,
      "respect": 1831,
      "wit": 1832,
      "vice": 1833,
      "ff": 1834,
      "ata": 1835,
      "confl": 1836,
      "dece": 1837,
      "express": 1838,
      "repl": 1839,
      "apan": 1840,
      "congressional": 1841,
      "influ": 1842,
      "favor": 1843,
      "politics": 1844,
      "anal": 1845,
      "pet": 1846,
      "talk": 1847,
      "weapons": 1848,
      "ruling": 1849,
      "mad": 1850,
      "lon": 1851,
      "pret": 1852,
      "young": 1853,
      "mom": 1854,
      "thir": 1855,
      "ield": 1856,
      "met": 1857,
      "fully": 1858,
      "japan": 1859,
      "emails": 1860,
      "thousands": 1861,
      "ades": 1862,
      "ences": 1863,
      "...": 1864,
      "2014": 1865,
      "wanted": 1866,
      "announced": 1867,
      "problem": 1868,
      "uation": 1869,
      "workers": 1870,
      "each": 1871,
      "scow": 1872,
      "doll": 1873,
      "actions": 1874,
      "success": 1875,
      "oh": 1876,
      "25": 1877,
      "moscow": 1878,
      "gets": 1879,
      "emer": 1880,
      "nov": 1881,
      "ener": 1882,
      "victim": 1883,
      "citizens": 1884,
      "backed": 1885,
      "bann": 1886,
      "resol": 1887,
      "account": 1888,
      "abl": 1889,
      "hy": 1890,
      "rally": 1891,
      "racist": 1892,
      "stri": 1893,
      "itor": 1894,
      "toge": 1895,
      "encies": 1896,
      "speaking": 1897,
      "together": 1898,
      "fund": 1899,
      "detail": 1900,
      "needs": 1901,
      "means": 1902,
      "gn": 1903,
      "climate": 1904,
      "prosecut": 1905,
      "progress": 1906,
      "makes": 1907,
      "ising": 1908,
      "hor": 1909,
      "different": 1910,
      "operation": 1911,
      "representatives": 1912,
      "western": 1913,
      "nbc": 1914,
      "leave": 1915,
      "associ": 1916,
      "everyone": 1917,
      "launch": 1918,
      "elected": 1919,
      "standing": 1920,
      "authorities": 1921,
      "laws": 1922,
      "selves": 1923,
      "counter": 1924,
      "elect": 1925,
      "prison": 1926,
      "aust": 1927,
      "below": 1928,
      "icle": 1929,
      "aud": 1930,
      "town": 1931,
      "establ": 1932,
      "message": 1933,
      "showed": 1934,
      "latest": 1935,
      "rant": 1936,
      "lied": 1937,
      "treat": 1938,
      "ender": 1939,
      "boo": 1940,
      "18": 1941,
      "market": 1942,
      "que": 1943,
      "whose": 1944,
      "organization": 1945,
      "conservatives": 1946,
      "ond": 1947,
      "presid": 1948,
      "freedom": 1949,
      "corrupt": 1950,
      "stay": 1951,
      "rather": 1952,
      "bloc": 1953,
      "street": 1954,
      "aper": 1955,
      "ience": 1956,
      "hope": 1957,
      "bid": 1958,
      "ances": 1959,
      "respond": 1960,
      "central": 1961,
      "ahead": 1962,
      "crow": 1963,
      "rid": 1964,
      "words": 1965,
      "popular": 1966,
      "august": 1967,
      "explain": 1968,
      "ministry": 1969,
      "immediately": 1970,
      "fell": 1971,
      "ensive": 1972,
      "alleged": 1973,
      "outside": 1974,
      "apr": 1975,
      "germany": 1976,
      "began": 1977,
      "students": 1978,
      "duc": 1979,
      "vention": 1980,
      "missile": 1981,
      "enforce": 1982,
      "december": 1983,
      "thought": 1984,
      "policies": 1985,
      "chines": 1986,
      "often": 1987,
      "init": 1988,
      "lost": 1989,
      "chinese": 1990,
      "wide": 1991,
      "199": 1992,
      "claims": 1993,
      "immigrants": 1994,
      "expl": 1995,
      ").": 1996,
      "ots": 1997,
      "decided": 1998,
      "eth": 1999,
      "drug": 2000,
      "describ": 2001,
      "nia": 2002,
      "olog": 2003,
      "termin": 2004,
      "questions": 2005,
      "febr": 2006,
      "criminal": 2007,
      "eli": 2008,
      "cho": 2009,
      "ival": 2010,
      "till": 2011,
      "allies": 2012,
      "crime": 2013,
      "wer": 2014,
      "february": 2015,
      "batt": 2016,
      "prep": 2017,
      "april": 2018,
      "relations": 2019,
      "lab": 2020,
      "anmar": 2021,
      "services": 2022,
      "ember": 2023,
      "spending": 2024,
      "funding": 2025,
      "myanmar": 2026,
      "wel": 2027,
      "ried": 2028,
      "ky": 2029,
      "failed": 2030,
      "september": 2031,
      "agreed": 2032,
      "gener": 2033,
      "benef": 2034,
      "project": 2035,
      "ping": 2036,
      "educ": 2037,
      "ey": 2038,
      "ghan": 2039,
      "morning": 2040,
      "ues": 2041,
      "separ": 2042,
      "energy": 2043,
      "rain": 2044,
      "unity": 2045,
      "repeated": 2046,
      "gas": 2047,
      "corpor": 2048,
      "pu": 2049,
      "almost": 2050,
      "presidency": 2051,
      "gave": 2052,
      "light": 2053,
      "aily": 2054,
      "ino": 2055,
      "super": 2056,
      "release": 2057,
      "bit": 2058,
      "daily": 2059,
      "addition": 2060,
      "planned": 2061,
      "millions": 2062,
      "danger": 2063,
      "tor": 2064,
      "george": 2065,
      "tv": 2066,
      "brief": 2067,
      "scr": 2068,
      "relation": 2069,
      "parties": 2070,
      "cali": 2071,
      "data": 2072,
      "ok": 2073,
      "resign": 2074,
      "agencies": 2075,
      "ees": 2076,
      "ints": 2077,
      "tried": 2078,
      "situation": 2079,
      "dish": 2080,
      "cannot": 2081,
      "gar": 2082,
      "phone": 2083,
      "aft": 2084,
      "concerns": 2085,
      "ez": 2086,
      "personal": 2087,
      "100": 2088,
      "although": 2089,
      "charges": 2090,
      "terrorism": 2091,
      "armed": 2092,
      "needed": 2093,
      "liberal": 2094,
      "deep": 2095,
      "expect": 2096,
      "tillerson": 2097,
      "polls": 2098,
      "sold": 2099,
      "cir": 2100,
      "always": 2101,
      "idea": 2102,
      "road": 2103,
      "ith": 2104,
      "anc": 2105,
      "demon": 2106,
      "paren": 2107,
      "ij": 2108,
      "industry": 2109,
      "appear": 2110,
      "usion": 2111,
      "build": 2112,
      "eas": 2113,
      "envir": 2114,
      "nomination": 2115,
      "british": 2116,
      "instit": 2117,
      "drop": 2118,
      "environ": 2119,
      "16": 2120,
      "ying": 2121,
      "mental": 2122,
      "leading": 2123,
      "ults": 2124,
      "ada": 2125,
      "califor": 2126,
      "voted": 2127,
      "restr": 2128,
      "else": 2129,
      "izing": 2130,
      "officers": 2131,
      "fighting": 2132,
      "demand": 2133,
      "return": 2134,
      "incident": 2135,
      "recently": 2136,
      "chance": 2137,
      "allowed": 2138,
      "ulation": 2139,
      "ott": 2140,
      "bomb": 2141,
      "minor": 2142,
      "final": 2143,
      "talking": 2144,
      "bio": 2145,
      "provide": 2146,
      "looking": 2147,
      "ring": 2148,
      "ently": 2149,
      "augh": 2150,
      "korean": 2151,
      "techn": 2152,
      "true": 2153,
      "soon": 2154,
      "tens": 2155,
      "everything": 2156,
      "sexual": 2157,
      "shows": 2158,
      "denied": 2159,
      "prevent": 2160,
      "marks": 2161,
      "quick": 2162,
      "california": 2163,
      "proper": 2164,
      "fired": 2165,
      "bol": 2166,
      "father": 2167,
      "dav": 2168,
      "ibut": 2169,
      "received": 2170,
      "var": 2171,
      "page": 2172,
      "rap": 2173,
      "espe": 2174,
      "emp": 2175,
      "cially": 2176,
      "14": 2177,
      "area": 2178,
      "kid": 2179,
      "quot": 2180,
      "relationship": 2181,
      "stor": 2182,
      "base": 2183,
      "adding": 2184,
      "hear": 2185,
      "spir": 2186,
      "24": 2187,
      "particular": 2188,
      "representative": 2189,
      "asse": 2190,
      "dev": 2191,
      "decades": 2192,
      "begin": 2193,
      "especially": 2194,
      "food": 2195,
      "iff": 2196,
      "firm": 2197,
      "stroy": 2198,
      "fake": 2199,
      "insurance": 2200,
      "13": 2201,
      "pul": 2202,
      "changes": 2203,
      "pled": 2204,
      "independence": 2205,
      "forward": 2206,
      "guard": 2207,
      "destroy": 2208,
      "happened": 2209,
      "mag": 2210,
      "17": 2211,
      "round": 2212,
      "allegations": 2213,
      "grap": 2214,
      "officer": 2215,
      "profess": 2216,
      "third": 2217,
      "ology": 2218,
      "either": 2219,
      "hours": 2220,
      "apparent": 2221,
      "district": 2222,
      "moder": 2223,
      "afghan": 2224,
      "research": 2225,
      "themselves": 2226,
      "paid": 2227,
      "probab": 2228,
      "include": 2229,
      "ko": 2230,
      "adviser": 2231,
      "involved": 2232,
      "james": 2233,
      "ively": 2234,
      "saw": 2235,
      "movement": 2236,
      "ador": 2237,
      "leav": 2238,
      "hearing": 2239,
      "fig": 2240,
      "bernie": 2241,
      "enforcement": 2242,
      "document": 2243,
      "lie": 2244,
      "points": 2245,
      "pence": 2246,
      "bed": 2247,
      "bt": 2248,
      "protesters": 2249,
      "grow": 2250,
      "plac": 2251,
      "german": 2252,
      "opin": 2253,
      "carol": 2254,
      "nel": 2255,
      "ortion": 2256,
      "ani": 2257,
      "ese": 2258,
      "mult": 2259,
      "passed": 2260,
      "love": 2261,
      "irl": 2262,
      "suit": 2263,
      "victory": 2264,
      "kelly": 2265,
      "david": 2266,
      "og": 2267,
      "absol": 2268,
      "arrested": 2269,
      "cases": 2270,
      "prior": 2271,
      "defend": 2272,
      "seven": 2273,
      "opt": 2274,
      ".-": 2275,
      "avo": 2276,
      "seems": 2277,
      "seat": 2278,
      "wife": 2279,
      "ake": 2280,
      "lower": 2281,
      "tem": 2282,
      "deput": 2283,
      "london": 2284,
      "ners": 2285,
      "terrorist": 2286,
      "conflict": 2287,
      "da": 2288,
      "neigh": 2289,
      "truth": 2290,
      "band": 2291,
      "pressure": 2292,
      "probably": 2293,
      "deli": 2294,
      "resident": 2295,
      "flag": 2296,
      "hot": 2297,
      "train": 2298,
      "wire": 2299,
      "biggest": 2300,
      "mot": 2301,
      "claimed": 2302,
      "aled": 2303,
      "writ": 2304,
      "lu": 2305,
      "related": 2306,
      "abe": 2307,
      "absolute": 2308,
      "confirmed": 2309,
      "mac": 2310,
      "turned": 2311,
      "rate": 2312,
      "nc": 2313,
      "details": 2314,
      "appeared": 2315,
      "similar": 2316,
      "hund": 2317,
      "primary": 2318,
      "shooting": 2319,
      "forced": 2320,
      "gain": 2321,
      "seek": 2322,
      "hundred": 2323,
      "mike": 2324,
      "challen": 2325,
      "foundation": 2326,
      "lying": 2327,
      "total": 2328,
      "pped": 2329,
      "fic": 2330,
      "usal": 2331,
      "dest": 2332,
      "arg": 2333,
      "girl": 2334,
      "inv": 2335,
      "deleg": 2336,
      "lect": 2337,
      "continued": 2338,
      "palest": 2339,
      "debt": 2340,
      "inst": 2341,
      "reve": 2342,
      "exist": 2343,
      "camp": 2344,
      "declined": 2345,
      "shut": 2346,
      "famil": 2347,
      "hael": 2348,
      "iding": 2349,
      "african": 2350,
      "arabia": 2351,
      "taxes": 2352,
      "ications": 2353,
      "2012": 2354,
      "brex": 2355,
      "gender": 2356,
      "rubio": 2357,
      "record": 2358,
      "cust": 2359,
      "overs": 2360,
      "clearly": 2361,
      "judic": 2362,
      "documents": 2363,
      "complain": 2364,
      "fal": 2365,
      "worked": 2366,
      "brexit": 2367,
      "flynn": 2368,
      "moved": 2369,
      "families": 2370,
      "ored": 2371,
      "cogn": 2372,
      "field": 2373,
      "lawyer": 2374,
      "mel": 2375,
      "michael": 2376,
      "catal": 2377,
      "religious": 2378,
      "christian": 2379,
      "equ": 2380,
      "fear": 2381,
      "largest": 2382,
      "mcc": 2383,
      "wasn": 2384,
      "ern": 2385,
      "iety": 2386,
      "ingly": 2387,
      "leadership": 2388,
      "sil": 2389,
      "acts": 2390,
      "understand": 2391,
      "hus": 2392,
      "militants": 2393,
      "lines": 2394,
      "mind": 2395,
      "deputy": 2396,
      "atory": 2397,
      "aging": 2398,
      "single": 2399,
      "roll": 2400,
      "remarks": 2401,
      "sup": 2402,
      "prove": 2403,
      "carolina": 2404,
      "guy": 2405,
      "increas": 2406,
      "giving": 2407,
      "lee": 2408,
      "fel": 2409,
      "goes": 2410,
      "result": 2411,
      "exact": 2412,
      "moment": 2413,
      "command": 2414,
      "corruption": 2415,
      "criticism": 2416,
      "ambass": 2417,
      "iving": 2418,
      "draw": 2419,
      "mccain": 2420,
      "repeal": 2421,
      "ises": 2422,
      "issued": 2423,
      "brought": 2424,
      "spoke": 2425,
      "seeking": 2426,
      "college": 2427,
      "posted": 2428,
      "ager": 2429,
      "acted": 2430,
      "stream": 2431,
      "murder": 2432,
      "influence": 2433,
      "pred": 2434,
      "recogn": 2435,
      "sty": 2436,
      "mission": 2437,
      "gold": 2438,
      "sessions": 2439,
      "necess": 2440,
      "wood": 2441,
      "trip": 2442,
      "boy": 2443,
      "speaker": 2444,
      "simply": 2445,
      "started": 2446,
      "ample": 2447,
      "fraud": 2448,
      "risk": 2449,
      "became": 2450,
      "longer": 2451,
      "education": 2452,
      "ends": 2453,
      "included": 2454,
      "replace": 2455,
      "defin": 2456,
      "assist": 2457,
      "merkel": 2458,
      "green": 2459,
      "cing": 2460,
      "ceed": 2461,
      "reality": 2462,
      "signed": 2463,
      "advoc": 2464,
      "require": 2465,
      "convention": 2466,
      "sell": 2467,
      "struction": 2468,
      "mayor": 2469,
      "surve": 2470,
      "bat": 2471,
      "sar": 2472,
      "share": 2473,
      "regional": 2474,
      "network": 2475,
      "areas": 2476,
      "agend": 2477,
      "protests": 2478,
      "amend": 2479,
      "yout": 2480,
      "scand": 2481,
      "rench": 2482,
      "carry": 2483,
      "increase": 2484,
      "cab": 2485,
      "raised": 2486,
      "france": 2487,
      "pract": 2488,
      "corre": 2489,
      "voter": 2490,
      "spent": 2491,
      "northern": 2492,
      "kurdish": 2493,
      "friends": 2494,
      "youtu": 2495,
      "proposed": 2496,
      "py": 2497,
      "specific": 2498,
      "income": 2499,
      "uch": 2500,
      "establish": 2501,
      "ibly": 2502,
      "dollars": 2503,
      "tained": 2504,
      "previously": 2505,
      "urch": 2506,
      "panel": 2507,
      "22": 2508,
      "announce": 2509,
      "design": 2510,
      "hun": 2511,
      "pac": 2512,
      "ires": 2513,
      "fis": 2514,
      "esh": 2515,
      "rohing": 2516,
      "60": 2517,
      "palestin": 2518,
      "ub": 2519,
      "article": 2520,
      "crowd": 2521,
      "determin": 2522,
      "county": 2523,
      "described": 2524,
      "ze": 2525,
      "gre": 2526,
      "opport": 2527,
      "fill": 2528,
      "criticized": 2529,
      "created": 2530,
      "worth": 2531,
      "pretty": 2532,
      "tom": 2533,
      "concl": 2534,
      "leak": 2535,
      "veter": 2536,
      "berg": 2537,
      "cross": 2538,
      "whole": 2539,
      "2013": 2540,
      "join": 2541,
      "iraqi": 2542,
      "hood": 2543,
      "tough": 2544,
      "lack": 2545,
      "shar": 2546,
      "era": 2547,
      "agenda": 2548,
      "poor": 2549,
      "ifican": 2550,
      "independent": 2551,
      "dangerous": 2552,
      "ambassador": 2553,
      "oud": 2554,
      "webs": 2555,
      "conduct": 2556,
      "beij": 2557,
      "contribut": 2558,
      "tran": 2559,
      "repeatedly": 2560,
      "beijing": 2561,
      "website": 2562,
      "transition": 2563,
      "mexican": 2564,
      "ordin": 2565,
      "heav": 2566,
      "capt": 2567,
      "helped": 2568,
      "named": 2569,
      "rom": 2570,
      "significan": 2571,
      "40": 2572,
      "han": 2573,
      "rohingya": 2574,
      "happen": 2575,
      "troops": 2576,
      "regist": 2577,
      "foot": 2578,
      "arms": 2579,
      "eight": 2580,
      "heard": 2581,
      "god": 2582,
      "argu": 2583,
      "holding": 2584,
      "church": 2585,
      "cele": 2586,
      "amoun": 2587,
      "affair": 2588,
      "bey": 2589,
      "cia": 2590,
      "ram": 2591,
      "product": 2592,
      "warned": 2593,
      "leban": 2594,
      "trust": 2595,
      "wis": 2596,
      "senators": 2597,
      "hundreds": 2598,
      "battle": 2599,
      "pak": 2600,
      "currently": 2601,
      "hat": 2602,
      "deliver": 2603,
      "bir": 2604,
      "wish": 2605,
      "doz": 2606,
      "paris": 2607,
      "programs": 2608,
      "virgin": 2609,
      "tic": 2610,
      "false": 2611,
      "ization": 2612,
      "die": 2613,
      "jail": 2614,
      "island": 2615,
      "heart": 2616,
      "robert": 2617,
      "proposal": 2618,
      "accus": 2619,
      "measures": 2620,
      "weets": 2621,
      "example": 2622,
      "kim": 2623,
      "23": 2624,
      "hos": 2625,
      "mother": 2626,
      "inj": 2627,
      "confirm": 2628,
      "celebr": 2629,
      "sor": 2630,
      "living": 2631,
      "sense": 2632,
      "ably": 2633,
      "analy": 2634,
      "absolutely": 2635,
      "gency": 2636,
      "gay": 2637,
      "ee": 2638,
      "ama": 2639,
      "27": 2640,
      "frank": 2641,
      "served": 2642,
      "powerful": 2643,
      "sw": 2644,
      "emen": 2645,
      "create": 2646,
      "ria": 2647,
      "victims": 2648,
      "opinion": 2649,
      "standard": 2650,
      "restrict": 2651,
      "violent": 2652,
      "experts": 2653,
      "fem": 2654,
      "responsible": 2655,
      "nic": 2656,
      "yes": 2657,
      "liby": 2658,
      "diffic": 2659,
      "uals": 2660,
      "liance": 2661,
      "pakistan": 2662,
      "works": 2663,
      "focus": 2664,
      "sea": 2665,
      "results": 2666,
      "jected": 2667,
      "mention": 2668,
      "hic": 2669,
      "isan": 2670,
      "ww": 2671,
      "arian": 2672,
      "funds": 2673,
      "problems": 2674,
      "hands": 2675,
      "interests": 2676,
      "ukrain": 2677,
      "word": 2678,
      "newsp": 2679,
      "willing": 2680,
      "dict": 2681,
      "johnson": 2682,
      "employees": 2683,
      "measure": 2684,
      "transp": 2685,
      "admit": 2686,
      "charge": 2687,
      "nato": 2688,
      "apparently": 2689,
      "convers": 2690,
      "spokeswoman": 2691,
      "28": 2692,
      "democracy": 2693,
      "oppon": 2694,
      "turk": 2695,
      "enter": 2696,
      "safety": 2697,
      "choice": 2698,
      "french": 2699,
      "partisan": 2700,
      "joe": 2701,
      "cli": 2702,
      "hon": 2703,
      "arm": 2704,
      "century": 2705,
      "gon": 2706,
      "significant": 2707,
      "tweeted": 2708,
      "strateg": 2709,
      "scen": 2710,
      "published": 2711,
      "youtube": 2712,
      "abortion": 2713,
      "bil": 2714,
      "kets": 2715,
      "bon": 2716,
      "urged": 2717,
      "parts": 2718,
      "concerned": 2719,
      "television": 2720,
      "icated": 2721,
      "od": 2722,
      "cul": 2723,
      "medical": 2724,
      "gle": 2725,
      "lah": 2726,
      "grand": 2727,
      "takes": 2728,
      "constitutional": 2729,
      "nav": 2730,
      "pie": 2731,
      "development": 2732,
      "operations": 2733,
      "ana": 2734,
      "orig": 2735,
      "lob": 2736,
      "mart": 2737,
      "sey": 2738,
      "beha": 2739,
      "itive": 2740,
      "hen": 2741,
      "barr": 2742,
      "iers": 2743,
      "wealth": 2744,
      "fellow": 2745,
      "labor": 2746,
      "pow": 2747,
      "businesses": 2748,
      "clo": 2749,
      "ime": 2750,
      "mand": 2751,
      "common": 2752,
      "daugh": 2753,
      "block": 2754,
      "tweets": 2755,
      "completely": 2756,
      "quickly": 2757,
      "suf": 2758,
      "asking": 2759,
      "charged": 2760,
      "sn": 2761,
      "perio": 2762,
      "xi": 2763,
      "26": 2764,
      "protection": 2765,
      "born": 2766,
      "condem": 2767,
      "concern": 2768,
      "citizen": 2769,
      "hosp": 2770,
      "2018": 2771,
      "strug": 2772,
      "tradition": 2773,
      "lement": 2774,
      "jef": 2775,
      "breaking": 2776,
      "ream": 2777,
      "sched": 2778,
      "settle": 2779,
      "numbers": 2780,
      "status": 2781,
      "afford": 2782,
      "ody": 2783,
      "alter": 2784,
      "path": 2785,
      "discrimin": 2786,
      "residents": 2787,
      "iple": 2788,
      "owed": 2789,
      "answer": 2790,
      "utions": 2791,
      "jerusal": 2792,
      "correct": 2793,
      "jerusalem": 2794,
      "29": 2795,
      "cabin": 2796,
      "partners": 2797,
      "elector": 2798,
      "telling": 2799,
      "inside": 2800,
      "died": 2801,
      "huge": 2802,
      "connell": 2803,
      "ark": 2804,
      "terrorists": 2805,
      "appropr": 2806,
      "origin": 2807,
      "virginia": 2808,
      "approach": 2809,
      "expressed": 2810,
      "rhe": 2811,
      "difficult": 2812,
      "disput": 2813,
      "internet": 2814,
      "hous": 2815,
      "ki": 2816,
      "critical": 2817,
      "mist": 2818,
      "quar": 2819,
      "avoid": 2820,
      "gul": 2821,
      "ilities": 2822,
      "particip": 2823,
      "austral": 2824,
      "probe": 2825,
      "exactly": 2826,
      "70": 2827,
      "cop": 2828,
      "rick": 2829,
      "sean": 2830,
      "bag": 2831,
      "growth": 2832,
      "behavi": 2833,
      "itself": 2834,
      "bang": 2835,
      "pra": 2836,
      "southern": 2837,
      "worse": 2838,
      "reporter": 2839,
      "pun": 2840,
      "gi": 2841,
      "spic": 2842,
      "viet": 2843,
      "matt": 2844,
      "outr": 2845,
      "obvious": 2846,
      "knows": 2847,
      "seas": 2848,
      "counsel": 2849,
      "authority": 2850,
      "growing": 2851,
      "neighbor": 2852,
      "afghanistan": 2853,
      "mcconnell": 2854,
      "sid": 2855,
      "iranian": 2856,
      "yemen": 2857,
      "committed": 2858,
      "structure": 2859,
      "pm": 2860,
      "ensure": 2861,
      "acting": 2862,
      "credit": 2863,
      "politicians": 2864,
      "cuts": 2865,
      "individuals": 2866,
      "umer": 2867,
      "date": 2868,
      "terms": 2869,
      "refugee": 2870,
      "horr": 2871,
      "necessary": 2872,
      "coverage": 2873,
      "closed": 2874,
      "custom": 2875,
      "suffer": 2876,
      "cabinet": 2877,
      "rival": 2878,
      "chic": 2879,
      "endum": 2880,
      "blam": 2881,
      "certainly": 2882,
      "expand": 2883,
      "audi": 2884,
      "radio": 2885,
      "divis": 2886,
      "jeff": 2887,
      "rhetor": 2888,
      "yang": 2889,
      "considered": 2890,
      "native": 2891,
      "erto": 2892,
      "bart": 2893,
      "referendum": 2894,
      "weak": 2895,
      "extre": 2896,
      "cyber": 2897,
      "period": 2898,
      "anda": 2899,
      "trial": 2900,
      "igan": 2901,
      "crimes": 2902,
      "produc": 2903,
      "spicer": 2904,
      "online": 2905,
      "impact": 2906,
      "environmental": 2907,
      "killing": 2908,
      "joint": 2909,
      "promised": 2910,
      "promise": 2911,
      "scandal": 2912,
      "appl": 2913,
      "sides": 2914,
      "hu": 2915,
      "brain": 2916,
      "fuel": 2917,
      "compl": 2918,
      "chan": 2919,
      "cup": 2920,
      "pain": 2921,
      "icit": 2922,
      "attention": 2923,
      "approved": 2924,
      "kept": 2925,
      "sequ": 2926,
      "refused": 2927,
      "diplomatic": 2928,
      "leaving": 2929,
      "extreme": 2930,
      "ito": 2931,
      "lang": 2932,
      "susp": 2933,
      "zer": 2934,
      "aries": 2935,
      "ctr": 2936,
      "events": 2937,
      "population": 2938,
      "threats": 2939,
      "israeli": 2940,
      "amendment": 2941,
      "aut": 2942,
      "filed": 2943,
      "negotiations": 2944,
      "stein": 2945,
      "appears": 2946,
      "mich": 2947,
      "cities": 2948,
      "offer": 2949,
      "produ": 2950,
      "assault": 2951,
      "cha": 2952,
      "pict": 2953,
      "critics": 2954,
      "rebel": 2955,
      "turkish": 2956,
      "pers": 2957,
      "puerto": 2958,
      "canada": 2959,
      "society": 2960,
      "behavior": 2961,
      "chicago": 2962,
      "statements": 2963,
      "investment": 2964,
      "sound": 2965,
      "reli": 2966,
      "dog": 2967,
      "narr": 2968,
      "series": 2969,
      "joy": 2970,
      "send": 2971,
      "serve": 2972,
      "affairs": 2973,
      "natur": 2974,
      "sels": 2975,
      "commer": 2976,
      "stage": 2977,
      "whom": 2978,
      "finally": 2979,
      "initial": 2980,
      "corporate": 2981,
      "parents": 2982,
      "moving": 2983,
      "finance": 2984,
      "surpr": 2985,
      "capture": 2986,
      "rhetoric": 2987,
      "ona": 2988,
      "pick": 2989,
      "dismiss": 2990,
      "histor": 2991,
      "buy": 2992,
      "higher": 2993,
      "pack": 2994,
      "aver": 2995,
      "worst": 2996,
      "figh": 2997,
      "moore": 2998,
      "husband": 2999,
      "bure": 3000,
      "wind": 3001,
      "alia": 3002,
      "responded": 3003,
      "ston": 3004,
      "wan": 3005,
      "maybe": 3006,
      "sought": 3007,
      "check": 3008,
      "eastern": 3009,
      "massive": 3010,
      "iam": 3011,
      "arily": 3012,
      "chris": 3013,
      "redu": 3014,
      "lose": 3015,
      "ohio": 3016,
      "80": 3017,
      "student": 3018,
      "witness": 3019,
      "abo": 3020,
      "cus": 3021,
      "yal": 3022,
      "oct": 3023,
      "reached": 3024,
      "newspaper": 3025,
      "jim": 3026,
      "establishment": 3027,
      "considering": 3028,
      "mn": 3029,
      "guns": 3030,
      "individual": 3031,
      "analyst": 3032,
      "jr": 3033,
      "raise": 3034,
      "regular": 3035,
      "compet": 3036,
      "agement": 3037,
      "subject": 3038,
      "strategy": 3039,
      "views": 3040,
      "encour": 3041,
      "mas": 3042,
      "ature": 3043,
      "supported": 3044,
      "citing": 3045,
      "remember": 3046,
      "olf": 3047,
      "radical": 3048,
      "lif": 3049,
      "count": 3050,
      "rating": 3051,
      "fast": 3052,
      "crack": 3053,
      "contest": 3054,
      "icul": 3055,
      "track": 3056,
      "ordered": 3057,
      "threatened": 3058,
      "cuba": 3059,
      "regulations": 3060,
      "bureau": 3061,
      "intro": 3062,
      "implement": 3063,
      "laugh": 3064,
      "beyond": 3065,
      "ication": 3066,
      "supporter": 3067,
      "provided": 3068,
      "knew": 3069,
      "aire": 3070,
      "loss": 3071,
      "princ": 3072,
      "controll": 3073,
      "taxpay": 3074,
      "believed": 3075,
      "ara": 3076,
      "**": 3077,
      "organizations": 3078,
      "icts": 3079,
      "agon": 3080,
      "directly": 3081,
      "macr": 3082,
      "hann": 3083,
      "asia": 3084,
      "haps": 3085,
      "records": 3086,
      "macron": 3087,
      "bing": 3088,
      "ination": 3089,
      "wonder": 3090,
      "approval": 3091,
      "fit": 3092,
      "ows": 3093,
      "delay": 3094,
      "utes": 3095,
      "price": 3096,
      "supposed": 3097,
      "suspect": 3098,
      "challenge": 3099,
      "challeng": 3100,
      "erally": 3101,
      "perhaps": 3102,
      "phil": 3103,
      ".,": 3104,
      "ros": 3105,
      "infr": 3106,
      "mainstream": 3107,
      "prompt": 3108,
      "som": 3109,
      "michigan": 3110,
      "vill": 3111,
      "breit": 3112,
      "grant": 3113,
      "legally": 3114,
      "flo": 3115,
      "lobby": 3116,
      "hest": 3117,
      "scott": 3118,
      "costs": 3119,
      "offered": 3120,
      "winning": 3121,
      "domest": 3122,
      "langu": 3123,
      "augur": 3124,
      "minority": 3125,
      "opportunity": 3126,
      "version": 3127,
      "activists": 3128,
      "rico": 3129,
      "inaugur": 3130,
      "suggested": 3131,
      "gather": 3132,
      "rise": 3133,
      "convict": 3134,
      "ports": 3135,
      "grab": 3136,
      "broadcast": 3137,
      "hotel": 3138,
      "ders": 3139,
      "pray": 3140,
      "soldiers": 3141,
      "tour": 3142,
      "oph": 3143,
      "warning": 3144,
      "demonstr": 3145,
      "electoral": 3146,
      "conspir": 3147,
      "endor": 3148,
      "breitbart": 3149,
      "35": 3150,
      "daughter": 3151,
      "schools": 3152,
      "alex": 3153,
      "tre": 3154,
      "sym": 3155,
      "iow": 3156,
      "declared": 3157,
      "appointed": 3158,
      "additional": 3159,
      "attacked": 3160,
      "stren": 3161,
      "estim": 3162,
      "indian": 3163,
      "faced": 3164,
      "gor": 3165,
      "ancy": 3166,
      "looks": 3167,
      "caused": 3168,
      "blood": 3169,
      "erc": 3170,
      "ison": 3171,
      "eller": 3172,
      "vlad": 3173,
      "remains": 3174,
      "enced": 3175,
      "ane": 3176,
      "continues": 3177,
      "wait": 3178,
      "embass": 3179,
      "brus": 3180,
      "thinks": 3181,
      "auto": 3182,
      "guil": 3183,
      "opposed": 3184,
      "supporting": 3185,
      "deport": 3186,
      "mail": 3187,
      "ka": 3188,
      "rates": 3189,
      "assad": 3190,
      "particularly": 3191,
      "streng": 3192,
      "egy": 3193,
      "rican": 3194,
      "boost": 3195,
      "iles": 3196,
      "lawsuit": 3197,
      "believes": 3198,
      "sat": 3199,
      "treas": 3200,
      "erial": 3201,
      "weekend": 3202,
      "card": 3203,
      "eric": 3204,
      "ukraine": 3205,
      "hell": 3206,
      "exam": 3207,
      "content": 3208,
      "ulture": 3209,
      "squ": 3210,
      "launched": 3211,
      "noted": 3212,
      "exchange": 3213,
      "happy": 3214,
      "showing": 3215,
      "egypt": 3216,
      "anch": 3217,
      "inf": 3218,
      "achie": 3219,
      "2008": 3220,
      "upon": 3221,
      "includes": 3222,
      "iowa": 3223,
      "game": 3224,
      "wil": 3225,
      "color": 3226,
      "steps": 3227,
      "ws": 3228,
      "mueller": 3229,
      "communications": 3230,
      "facts": 3231,
      "fiscal": 3232,
      "onym": 3233,
      "gone": 3234,
      "bod": 3235,
      "apped": 3236,
      "played": 3237,
      "homel": 3238,
      "publicly": 3239,
      "condition": 3240,
      "kids": 3241,
      "iary": 3242,
      "ift": 3243,
      "franc": 3244,
      "tai": 3245,
      "amid": 3246,
      "eful": 3247,
      "regarding": 3248,
      "libya": 3249,
      "brussels": 3250,
      "venez": 3251,
      "500": 3252,
      "2011": 3253,
      "erve": 3254,
      "lawyers": 3255,
      "governments": 3256,
      "reven": 3257,
      "journalists": 3258,
      "ii": 3259,
      "nes": 3260,
      "endorse": 3261,
      "domestic": 3262,
      "dut": 3263,
      "william": 3264,
      "aks": 3265,
      "towards": 3266,
      "wouldn": 3267,
      "summit": 3268,
      "lou": 3269,
      "ota": 3270,
      "appeal": 3271,
      "jack": 3272,
      "meant": 3273,
      "hall": 3274,
      "imir": 3275,
      "brand": 3276,
      "insist": 3277,
      "dad": 3278,
      "ruled": 3279,
      "qa": 3280,
      "quite": 3281,
      "resolution": 3282,
      "avail": 3283,
      "trou": 3284,
      "quality": 3285,
      "separate": 3286,
      "ites": 3287,
      "lets": 3288,
      "oppos": 3289,
      "none": 3290,
      "conv": 3291,
      "agents": 3292,
      "referring": 3293,
      "announcement": 3294,
      "appropriate": 3295,
      "rog": 3296,
      "vladimir": 3297,
      "site": 3298,
      "affe": 3299,
      "spect": 3300,
      "ron": 3301,
      "itarian": 3302,
      "ung": 3303,
      "discussed": 3304,
      "perfect": 3305,
      "experience": 3306,
      "clean": 3307,
      "tempor": 3308,
      "language": 3309,
      "gree": 3310,
      "ultim": 3311,
      "stant": 3312,
      "door": 3313,
      "cooperation": 3314,
      "banks": 3315,
      "migrants": 3316,
      "multiple": 3317,
      "couldn": 3318,
      "aimed": 3319,
      "ously": 3320,
      "schedul": 3321,
      "lyn": 3322,
      "mostly": 3323,
      "seriously": 3324,
      "electr": 3325,
      "racism": 3326,
      "naz": 3327,
      "association": 3328,
      "spread": 3329,
      "francis": 3330,
      "jones": 3331,
      "wise": 3332,
      "hospital": 3333,
      "wik": 3334,
      "sher": 3335,
      "ained": 3336,
      "uded": 3337,
      "tally": 3338,
      "manager": 3339,
      "alliance": 3340,
      "grad": 3341,
      "africa": 3342,
      "amount": 3343,
      "powers": 3344,
      "nine": 3345,
      "acknow": 3346,
      "warren": 3347,
      "classified": 3348,
      "banglad": 3349,
      "identified": 3350,
      "acknowled": 3351,
      "pi": 3352,
      "pyong": 3353,
      "drew": 3354,
      "roc": 3355,
      "bangladesh": 3356,
      "editor": 3357,
      "choo": 3358,
      "owars": 3359,
      "2010": 3360,
      "revol": 3361,
      "beat": 3362,
      "brown": 3363,
      "comed": 3364,
      "facing": 3365,
      "changed": 3366,
      "responsibility": 3367,
      "inde": 3368,
      "ples": 3369,
      "putting": 3370,
      "maintain": 3371,
      "assem": 3372,
      "row": 3373,
      "pyongyang": 3374,
      "gry": 3375,
      "occup": 3376,
      "transgender": 3377,
      "hurt": 3378,
      "fortun": 3379,
      "tensions": 3380,
      "embassy": 3381,
      "ium": 3382,
      "istic": 3383,
      "decide": 3384,
      "steve": 3385,
      "briefing": 3386,
      "delegates": 3387,
      "stance": 3388,
      "server": 3389,
      "attend": 3390,
      "billionaire": 3391,
      "dnc": 3392,
      "blame": 3393,
      "phili": 3394,
      "infra": 3395,
      "cell": 3396,
      "followed": 3397,
      "prosecutors": 3398,
      "material": 3399,
      "above": 3400,
      "philipp": 3401,
      "propag": 3402,
      "fix": 3403,
      "emergency": 3404,
      "resour": 3405,
      "infrastructure": 3406,
      "yl": 3407,
      "legislative": 3408,
      "insul": 3409,
      "ushing": 3410,
      "treasury": 3411,
      "promot": 3412,
      "accounts": 3413,
      "bannon": 3414,
      "lebanon": 3415,
      "accusations": 3416,
      "hurrican": 3417,
      "strike": 3418,
      "taiwan": 3419,
      "ania": 3420,
      "ght": 3421,
      "45": 3422,
      "technology": 3423,
      "piece": 3424,
      "abc": 3425,
      "required": 3426,
      "zi": 3427,
      "aggress": 3428,
      "embarr": 3429,
      "caught": 3430,
      "available": 3431,
      "embarrass": 3432,
      "imum": 3433,
      "conway": 3434,
      "ague": 3435,
      "decade": 3436,
      "vil": 3437,
      "bot": 3438,
      "neg": 3439,
      "damage": 3440,
      "creat": 3441,
      "js": 3442,
      "becoming": 3443,
      "felt": 3444,
      "umb": 3445,
      "reporting": 3446,
      "sarah": 3447,
      "helping": 3448,
      "figure": 3449,
      "predict": 3450,
      "ension": 3451,
      "paying": 3452,
      "ethnic": 3453,
      "onia": 3454,
      "active": 3455,
      "estate": 3456,
      "imin": 3457,
      "resist": 3458,
      "cited": 3459,
      "zone": 3460,
      "largely": 3461,
      "deals": 3462,
      "investigating": 3463,
      "va": 3464,
      "professor": 3465,
      "except": 3466,
      "prec": 3467,
      "mine": 3468,
      "ifying": 3469,
      "controlled": 3470,
      "involve": 3471,
      "aching": 3472,
      "controvers": 3473,
      "keeping": 3474,
      "extrem": 3475,
      "iliar": 3476,
      "endors": 3477,
      "reasons": 3478,
      "birth": 3479,
      "manu": 3480,
      "positions": 3481,
      "joined": 3482,
      "stood": 3483,
      "meetings": 3484,
      "plat": 3485,
      "familiar": 3486,
      "values": 3487,
      "sad": 3488,
      "inner": 3489,
      "palestinian": 3490,
      "contract": 3491,
      "alone": 3492,
      "traff": 3493,
      "vert": 3494,
      "funded": 3495,
      "appeals": 3496,
      "vietnam": 3497,
      "stup": 3498,
      "scheduled": 3499,
      "manufact": 3500,
      "span": 3501,
      "property": 3502,
      "cham": 3503,
      "shi": 3504,
      "exerc": 3505,
      "surv": 3506,
      "riot": 3507,
      "aides": 3508,
      "enem": 3509,
      "ched": 3510,
      "couple": 3511,
      "blue": 3512,
      "bes": 3513,
      "egr": 3514,
      "usa": 3515,
      "dig": 3516,
      "ariz": 3517,
      "romney": 3518,
      "pent": 3519,
      "owned": 3520,
      "itory": 3521,
      "racial": 3522,
      "broke": 3523,
      "anonym": 3524,
      "brother": 3525,
      "modern": 3526,
      "natural": 3527,
      "hig": 3528,
      "rejected": 3529,
      "stock": 3530,
      "preced": 3531,
      "literally": 3532,
      "tells": 3533,
      "revealed": 3534,
      "throughout": 3535,
      "verse": 3536,
      "please": 3537,
      "tit": 3538,
      "wound": 3539,
      "goal": 3540,
      "pointed": 3541,
      "mir": 3542,
      "consul": 3543,
      "harass": 3544,
      "box": 3545,
      "courts": 3546,
      "michel": 3547,
      "stupid": 3548,
      "stone": 3549,
      "iter": 3550,
      "coast": 3551,
      "hopes": 3552,
      "ument": 3553,
      "christie": 3554,
      "guilty": 3555,
      "ashed": 3556,
      "thank": 3557,
      "territory": 3558,
      "solution": 3559,
      "lady": 3560,
      "wikile": 3561,
      "aide": 3562,
      "ji": 3563,
      "allowing": 3564,
      "decisions": 3565,
      "faces": 3566,
      "doubt": 3567,
      "kas": 3568,
      "prosecutor": 3569,
      "conspiracy": 3570,
      "benefits": 3571,
      "spain": 3572,
      "iring": 3573,
      "carson": 3574,
      "charac": 3575,
      "communities": 3576,
      "wikileaks": 3577,
      "ays": 3578,
      "legit": 3579,
      "career": 3580,
      "pentagon": 3581,
      "dd": 3582,
      "mate": 3583,
      "imag": 3584,
      "russians": 3585,
      "note": 3586,
      "improve": 3587,
      "cooper": 3588,
      "regime": 3589,
      "drive": 3590,
      "ducted": 3591,
      "treatment": 3592,
      "defeat": 3593,
      "range": 3594,
      "covered": 3595,
      "hannity": 3596,
      "science": 3597,
      "vac": 3598,
      "excl": 3599,
      "opened": 3600,
      "written": 3601,
      "fol": 3602,
      "stated": 3603,
      "partner": 3604,
      "disast": 3605,
      "holly": 3606,
      "aware": 3607,
      "ias": 3608,
      "fighters": 3609,
      "highest": 3610,
      "alab": 3611,
      "krem": 3612,
      "shoc": 3613,
      "antic": 3614,
      "airport": 3615,
      "sort": 3616,
      "vin": 3617,
      "braz": 3618,
      "compared": 3619,
      "domin": 3620,
      "religion": 3621,
      "dial": 3622,
      "jun": 3623,
      "amaz": 3624,
      "focused": 3625,
      "homeland": 3626,
      "orts": 3627,
      "lew": 3628,
      "trig": 3629,
      "offensive": 3630,
      "seeing": 3631,
      "club": 3632,
      "pping": 3633,
      "kremlin": 3634,
      "investigations": 3635,
      "playing": 3636,
      "opponents": 3637,
      "anim": 3638,
      "initi": 3639,
      "hone": 3640,
      "iri": 3641,
      "annual": 3642,
      "ink": 3643,
      "iny": 3644,
      "ivank": 3645,
      "brid": 3646,
      "faith": 3647,
      "msnbc": 3648,
      "arizona": 3649,
      "management": 3650,
      "deploy": 3651,
      "thanks": 3652,
      "study": 3653,
      "prie": 3654,
      "ipt": 3655,
      "scient": 3656,
      "erdo": 3657,
      "beginning": 3658,
      "propaganda": 3659,
      "det": 3660,
      "attr": 3661,
      "occur": 3662,
      "21st": 3663,
      "orders": 3664,
      "voice": 3665,
      "honor": 3666,
      "ats": 3667,
      "india": 3668,
      "strikes": 3669,
      "integr": 3670,
      "stra": 3671,
      "controversial": 3672,
      "whate": 3673,
      "female": 3674,
      "platform": 3675,
      "whatever": 3676,
      "activities": 3677,
      "sales": 3678,
      "secure": 3679,
      "teen": 3680,
      "2009": 3681,
      "conditions": 3682,
      "province": 3683,
      "sees": 3684,
      "moham": 3685,
      "penn": 3686,
      "hurricane": 3687,
      "desper": 3688,
      "log": 3689,
      "polling": 3690,
      "reduce": 3691,
      "nob": 3692,
      "carried": 3693,
      "affordable": 3694,
      "resources": 3695,
      "apolog": 3696,
      "traffic": 3697,
      "paper": 3698,
      "prepared": 3699,
      "judicial": 3700,
      "erdogan": 3701,
      "ceo": 3702,
      "miles": 3703,
      "rec": 3704,
      "minutes": 3705,
      "dropped": 3706,
      "lg": 3707,
      "pursu": 3708,
      "targeted": 3709,
      "palin": 3710,
      "confirmation": 3711,
      "gives": 3712,
      "moun": 3713,
      "militant": 3714,
      "veterans": 3715,
      "31": 3716,
      "theast": 3717,
      "shared": 3718,
      "ries": 3719,
      "totally": 3720,
      "heads": 3721,
      "hib": 3722,
      "collap": 3723,
      "inauguration": 3724,
      "ural": 3725,
      "apart": 3726,
      "ysis": 3727,
      "planning": 3728,
      "hollywood": 3729,
      "rig": 3730,
      "clintons": 3731,
      "bun": 3732,
      "consequ": 3733,
      "syl": 3734,
      "claiming": 3735,
      "losing": 3736,
      "pacific": 3737,
      "restrictions": 3738,
      "normal": 3739,
      "thinking": 3740,
      "various": 3741,
      "ville": 3742,
      "kk": 3743,
      "mana": 3744,
      "limit": 3745,
      "built": 3746,
      "australia": 3747,
      "ric": 3748,
      "average": 3749,
      "reject": 3750,
      "ateral": 3751,
      "ibe": 3752,
      "ni": 3753,
      "payments": 3754,
      "ification": 3755,
      "conversation": 3756,
      "90": 3757,
      "recomm": 3758,
      "teh": 3759,
      "proceed": 3760,
      "owners": 3761,
      "islamist": 3762,
      "stopped": 3763,
      "levels": 3764,
      "station": 3765,
      "systems": 3766,
      "rout": 3767,
      "mou": 3768,
      "blast": 3769,
      "advance": 3770,
      "cash": 3771,
      "conducted": 3772,
      "positive": 3773,
      "linked": 3774,
      "usual": 3775,
      "spot": 3776,
      "manafort": 3777,
      "riage": 3778,
      "mun": 3779,
      "listen": 3780,
      "epa": 3781,
      "sick": 3782,
      "stree": 3783,
      "increased": 3784,
      "oing": 3785,
      "dream": 3786,
      "richard": 3787,
      "bell": 3788,
      "bled": 3789,
      "angry": 3790,
      "craft": 3791,
      "highly": 3792,
      "placed": 3793,
      "award": 3794,
      "removed": 3795,
      "markets": 3796,
      "serving": 3797,
      "jersey": 3798,
      "eye": 3799,
      "gust": 3800,
      "swed": 3801,
      "dc": 3802,
      "alabama": 3803,
      "thom": 3804,
      "prince": 3805,
      "internal": 3806,
      "opening": 3807,
      "commander": 3808,
      "sensit": 3809,
      "haul": 3810,
      "chec": 3811,
      "argued": 3812,
      "mary": 3813,
      "ining": 3814,
      "names": 3815,
      "atic": 3816,
      "precedent": 3817,
      "borders": 3818,
      "meaning": 3819,
      "insu": 3820,
      "communist": 3821,
      "definite": 3822,
      "store": 3823,
      "cry": 3824,
      "moral": 3825,
      "dozens": 3826,
      "character": 3827,
      "sometimes": 3828,
      "outrage": 3829,
      "rol": 3830,
      "clar": 3831,
      "advant": 3832,
      "bly": 3833,
      "investors": 3834,
      "impe": 3835,
      "hs": 3836,
      "phys": 3837,
      "supremac": 3838,
      "benefit": 3839,
      "bling": 3840,
      "waiting": 3841,
      "umpt": 3842,
      "sector": 3843,
      "rape": 3844,
      "bringing": 3845,
      "rock": 3846,
      "ika": 3847,
      "pushing": 3848,
      "ads": 3849,
      "ume": 3850,
      "sylvan": 3851,
      "abuse": 3852,
      "institute": 3853,
      "save": 3854,
      "presidents": 3855,
      "failure": 3856,
      "zy": 3857,
      "thus": 3858,
      "sites": 3859,
      "pushed": 3860,
      "judiciary": 3861,
      "successful": 3862,
      "goo": 3863,
      "craz": 3864,
      "greater": 3865,
      "limited": 3866,
      "tehran": 3867,
      "unless": 3868,
      "feed": 3869,
      "settlement": 3870,
      "pennsylvan": 3871,
      "lgbt": 3872,
      "reforms": 3873,
      "training": 3874,
      "bin": 3875,
      "survey": 3876,
      "introduc": 3877,
      "iver": 3878,
      "possibility": 3879,
      "picture": 3880,
      "pes": 3881,
      "sed": 3882,
      "entering": 3883,
      "memo": 3884,
      "198": 3885,
      "hypo": 3886,
      "admitted": 3887,
      "housing": 3888,
      "matters": 3889,
      "businessman": 3890,
      "testim": 3891,
      "aced": 3892,
      "belief": 3893,
      "wiscons": 3894,
      "trigger": 3895,
      "park": 3896,
      "surround": 3897,
      "possibly": 3898,
      "floor": 3899,
      "lic": 3900,
      "backing": 3901,
      "profit": 3902,
      "biden": 3903,
      "disaster": 3904,
      "affect": 3905,
      "usive": 3906,
      "suspected": 3907,
      "screenshot": 3908,
      "hacking": 3909,
      "spr": 3910,
      "analysis": 3911,
      "kir": 3912,
      "trail": 3913,
      "assess": 3914,
      "style": 3915,
      "unfortun": 3916,
      "corp": 3917,
      "coordin": 3918,
      "sentence": 3919,
      "ivanka": 3920,
      "wisconsin": 3921,
      "oom": 3922,
      "onic": 3923,
      "detained": 3924,
      "marriage": 3925,
      "humanitarian": 3926,
      "production": 3927,
      "pennsylvania": 3928,
      "kr": 3929,
      "berlin": 3930,
      "rev": 3931,
      "subsid": 3932,
      "mattis": 3933,
      "fare": 3934,
      "wild": 3935,
      "erous": 3936,
      "ishing": 3937,
      "starting": 3938,
      "receive": 3939,
      "revolution": 3940,
      "remove": 3941,
      "construction": 3942,
      "ignor": 3943,
      "disgust": 3944,
      "flint": 3945,
      "harm": 3946,
      "discussion": 3947,
      "catalan": 3948,
      "audience": 3949,
      "aham": 3950,
      "gate": 3951,
      "iders": 3952,
      "ballot": 3953,
      "explo": 3954,
      "signs": 3955,
      "happens": 3956,
      "lock": 3957,
      "basis": 3958,
      "scene": 3959,
      "alternative": 3960,
      "shown": 3961,
      "raising": 3962,
      "uela": 3963,
      "ansas": 3964,
      "judges": 3965,
      "slow": 3966,
      "ery": 3967,
      "remin": 3968,
      "discover": 3969,
      "kush": 3970,
      "denies": 3971,
      "perform": 3972,
      "requests": 3973,
      "negative": 3974,
      "akh": 3975,
      "retired": 3976,
      "ridicul": 3977,
      "infowars": 3978,
      "intended": 3979,
      "brut": 3980,
      "transport": 3981,
      "louis": 3982,
      "scar": 3983,
      "martin": 3984,
      "hi": 3985,
      "table": 3986,
      "explained": 3987,
      "channel": 3988,
      "kushner": 3989,
      "storm": 3990,
      "assembly": 3991,
      "prices": 3992,
      "draft": 3993,
      "surprise": 3994,
      "venezuela": 3995,
      "culture": 3996,
      "accur": 3997,
      "worried": 3998,
      "gling": 3999,
      "plane": 4000,
      "listic": 4001,
      "wage": 4002,
      "escal": 4003,
      "impeach": 4004,
      "vowed": 4005,
      "hariri": 4006,
      "testimony": 4007,
      "posts": 4008,
      "existing": 4009,
      "bath": 4010,
      "enn": 4011,
      "answ": 4012,
      "sche": 4013,
      "immigrant": 4014,
      "civilians": 4015,
      "stories": 4016,
      "rand": 4017,
      "republic": 4018,
      "firms": 4019,
      "touch": 4020,
      "asyl": 4021,
      "bull": 4022,
      "thood": 4023,
      "administr": 4024,
      "setting": 4025,
      "asylum": 4026,
      "renew": 4027,
      "extra": 4028,
      "missiles": 4029,
      "cuban": 4030,
      "collusion": 4031,
      "assistance": 4032,
      "core": 4033,
      "cbs": 4034,
      "icate": 4035,
      "shire": 4036,
      "spend": 4037,
      "ov": 4038,
      "max": 4039,
      "involvement": 4040,
      "sto": 4041,
      "schumer": 4042,
      "activity": 4043,
      "designed": 4044,
      "ease": 4045,
      "fat": 4046,
      "iel": 4047,
      "agan": 4048,
      "consist": 4049,
      "panic": 4050,
      "extremely": 4051,
      "elimin": 4052,
      "session": 4053,
      "object": 4054,
      "film": 4055,
      "blocked": 4056,
      "beg": 4057,
      "hopeful": 4058,
      "za": 4059,
      "increasingly": 4060,
      "frequ": 4061,
      "spl": 4062,
      "loyal": 4063,
      "writing": 4064,
      "aine": 4065,
      "ogue": 4066,
      "definitely": 4067,
      "proof": 4068,
      "simple": 4069,
      "mach": 4070,
      "dont": 4071,
      "pap": 4072,
      "behalf": 4073,
      "ireland": 4074,
      "purch": 4075,
      "truly": 4076,
      "estimated": 4077,
      "err": 4078,
      "iven": 4079,
      "ivals": 4080,
      "georg": 4081,
      "dp": 4082,
      "bills": 4083,
      "employment": 4084,
      "wealthy": 4085,
      "ballistic": 4086,
      "dialogue": 4087,
      "essential": 4088,
      "parenthood": 4089,
      "seats": 4090,
      "21wire": 4091,
      "graham": 4092,
      "comb": 4093,
      "spoken": 4094,
      "homes": 4095,
      "chuck": 4096,
      "happening": 4097,
      "idi": 4098,
      "supports": 4099,
      "appearance": 4100,
      "places": 4101,
      "golf": 4102,
      "overhaul": 4103,
      "returns": 4104,
      "tan": 4105,
      "herself": 4106,
      "lawmaker": 4107,
      "bagh": 4108,
      "nobody": 4109,
      "proced": 4110,
      "cance": 4111,
      "indict": 4112,
      "politically": 4113,
      "arrived": 4114,
      "dollar": 4115,
      "discrimination": 4116,
      "catalonia": 4117,
      ".)": 4118,
      "iger": 4119,
      "wins": 4120,
      "trib": 4121,
      "code": 4122,
      "lan": 4123,
      "theres": 4124,
      "ski": 4125,
      "options": 4126,
      "rough": 4127,
      "impl": 4128,
      "guar": 4129,
      "pope": 4130,
      "iced": 4131,
      "lav": 4132,
      "background": 4133,
      "hed": 4134,
      "empts": 4135,
      "greg": 4136,
      "liberals": 4137,
      "girls": 4138,
      "rare": 4139,
      "ongoing": 4140,
      "navy": 4141,
      "hero": 4142,
      "guarant": 4143,
      "throw": 4144,
      "proposals": 4145,
      "atl": 4146,
      "illegally": 4147,
      "confident": 4148,
      "pull": 4149,
      "cher": 4150,
      "capito": 4151,
      "runner": 4152,
      "indeed": 4153,
      "baghdad": 4154,
      "anne": 4155,
      "looked": 4156,
      "environment": 4157,
      "ultimately": 4158,
      "streets": 4159,
      "inent": 4160,
      "forman": 4161,
      "medica": 4162,
      "confidence": 4163,
      "failing": 4164,
      "pipe": 4165,
      "hamp": 4166,
      "stu": 4167,
      "ester": 4168,
      "holds": 4169,
      "medicaid": 4170,
      "atar": 4171,
      "teach": 4172,
      "asian": 4173,
      "ado": 4174,
      "wearing": 4175,
      "foun": 4176,
      "rt": 4177,
      "illion": 4178,
      "mont": 4179,
      "diplomats": 4180,
      "widely": 4181,
      "combat": 4182,
      "associated": 4183,
      "smo": 4184,
      "andrew": 4185,
      "presents": 4186,
      "marco": 4187,
      "fre": 4188,
      "comfort": 4189,
      "marine": 4190,
      "potentially": 4191,
      "products": 4192,
      "advantage": 4193,
      "cops": 4194,
      "unclear": 4195,
      "attempts": 4196,
      "achieve": 4197,
      "worry": 4198,
      "jewish": 4199,
      "profile": 4200,
      "easy": 4201,
      "magaz": 4202,
      "scalia": 4203,
      "flee": 4204,
      "rex": 4205,
      "watching": 4206,
      "gment": 4207,
      "sending": 4208,
      "asc": 4209,
      "minimum": 4210,
      "investigate": 4211,
      "melania": 4212,
      "mouth": 4213,
      "hab": 4214,
      "nice": 4215,
      "eventually": 4216,
      "tap": 4217,
      "hez": 4218,
      "congressman": 4219,
      "promises": 4220,
      "hampshire": 4221,
      "obl": 4222,
      "prospect": 4223,
      "ministers": 4224,
      "accord": 4225,
      "spanish": 4226,
      "inno": 4227,
      "coup": 4228,
      "actual": 4229,
      "space": 4230,
      "drugs": 4231,
      "donors": 4232,
      "threatening": 4233,
      "burg": 4234,
      "challenges": 4235,
      "sheriff": 4236,
      "sale": 4237,
      "zim": 4238,
      "unlikely": 4239,
      "fled": 4240,
      "attacking": 4241,
      "expert": 4242,
      "mnuch": 4243,
      "wast": 4244,
      "drill": 4245,
      "mnuchin": 4246,
      "aling": 4247,
      "uncertain": 4248,
      "rallies": 4249,
      "activist": 4250,
      "hezbol": 4251,
      "gang": 4252,
      "sam": 4253,
      "intent": 4254,
      "vised": 4255,
      "italy": 4256,
      "sky": 4257,
      "hezbollah": 4258,
      "pit": 4259,
      "imposed": 4260,
      "oppose": 4261,
      "pression": 4262,
      "gabe": 4263,
      "carrying": 4264,
      "videos": 4265,
      "investigators": 4266,
      "tight": 4267,
      "vul": 4268,
      "earth": 4269,
      "institutions": 4270,
      "standards": 4271,
      "dismissed": 4272,
      "analysts": 4273,
      "iling": 4274,
      "interference": 4275,
      "veteran": 4276,
      "cath": 4277,
      "banned": 4278,
      "surveill": 4279,
      "pelos": 4280,
      "interior": 4281,
      "sitting": 4282,
      "ological": 4283,
      "relief": 4284,
      "pelosi": 4285,
      "visa": 4286,
      "contact": 4287,
      "explos": 4288,
      "projects": 4289,
      "option": 4290,
      "practice": 4291,
      "jihad": 4292,
      "leftist": 4293,
      "slam": 4294,
      "thy": 4295,
      "aircraft": 4296,
      "heavily": 4297,
      "philippines": 4298,
      "tact": 4299,
      "blow": 4300,
      "resignation": 4301,
      "impose": 4302,
      "struck": 4303,
      "campaigns": 4304,
      "choose": 4305,
      "reduc": 4306,
      "ahu": 4307,
      "smart": 4308,
      "jose": 4309,
      "ss": 4310,
      "turning": 4311,
      "commitment": 4312,
      "progressive": 4313,
      "blamed": 4314,
      "75": 4315,
      "creation": 4316,
      "qatar": 4317,
      "numerous": 4318,
      "hr": 4319,
      "exc": 4320,
      "praised": 4321,
      "treated": 4322,
      "capitol": 4323,
      "fine": 4324,
      "whel": 4325,
      "izes": 4326,
      "figures": 4327,
      "zero": 4328,
      "gent": 4329,
      "gam": 4330,
      "veh": 4331,
      "contain": 4332,
      "bipartisan": 4333,
      "wake": 4334,
      "seemed": 4335,
      "obviously": 4336,
      "georgia": 4337,
      "ode": 4338,
      "yester": 4339,
      "providing": 4340,
      "deeply": 4341,
      "ories": 4342,
      "smith": 4343,
      "quoted": 4344,
      "resc": 4345,
      "neither": 4346,
      "captu": 4347,
      "involving": 4348,
      "documented": 4349,
      "michelle": 4350,
      "icide": 4351,
      "otherwise": 4352,
      "type": 4353,
      "collect": 4354,
      "founder": 4355,
      "presence": 4356,
      "firing": 4357,
      "evening": 4358,
      "ledge": 4359,
      "revenue": 4360,
      "illa": 4361,
      "antly": 4362,
      "crazy": 4363,
      "bathroom": 4364,
      "ax": 4365,
      "yell": 4366,
      "illy": 4367,
      "perman": 4368,
      "mugabe": 4369,
      "defe": 4370,
      "chancell": 4371,
      "consequences": 4372,
      "sensitive": 4373,
      "surveillance": 4374,
      "iment": 4375,
      "function": 4376,
      "mitch": 4377,
      "christians": 4378,
      "swit": 4379,
      "uter": 4380,
      "andon": 4381,
      "illino": 4382,
      "overwhel": 4383,
      "oregon": 4384,
      "sharp": 4385,
      "heavy": 4386,
      "bob": 4387,
      "proud": 4388,
      "yesterday": 4389,
      "sla": 4390,
      "orland": 4391,
      "illinois": 4392,
      "m_": 4393,
      "closely": 4394,
      "dozen": 4395,
      "beng": 4396,
      "dling": 4397,
      "crackdown": 4398,
      "tear": 4399,
      "euro": 4400,
      "convicted": 4401,
      "orlando": 4402,
      "jump": 4403,
      "iner": 4404,
      "ady": 4405,
      "hasn": 4406,
      "flight": 4407,
      "incred": 4408,
      "feder": 4409,
      "oul": 4410,
      ".@": 4411,
      "pressed": 4412,
      "punish": 4413,
      "advert": 4414,
      "abroad": 4415,
      "gov": 4416,
      "troit": 4417,
      "effective": 4418,
      "straight": 4419,
      "stability": 4420,
      "stephen": 4421,
      "utm_": 4422,
      "shit": 4423,
      "summer": 4424,
      "japanese": 4425,
      "oversight": 4426,
      "recognize": 4427,
      "tray": 4428,
      "detroit": 4429,
      "attended": 4430,
      "creating": 4431,
      "ridiculous": 4432,
      "vehicle": 4433,
      "ano": 4434,
      "politico": 4435,
      "waters": 4436,
      "traditional": 4437,
      "rebels": 4438,
      "zika": 4439,
      "overseas": 4440,
      "controver": 4441,
      "brazil": 4442,
      "anton": 4443,
      "roy": 4444,
      "value": 4445,
      "unable": 4446,
      "web": 4447,
      "??": 4448,
      "300": 4449,
      "chancellor": 4450,
      "caucus": 4451,
      "kasich": 4452,
      "controversy": 4453,
      "400": 4454,
      "ila": 4455,
      "remained": 4456,
      "returned": 4457,
      "tort": 4458,
      "fundra": 4459,
      "abeth": 4460,
      "honest": 4461,
      "hilar": 4462,
      "dones": 4463,
      "pledged": 4464,
      "affected": 4465,
      "oblig": 4466,
      "48": 4467,
      "driving": 4468,
      "questioned": 4469,
      "strategic": 4470,
      "haven": 4471,
      "tural": 4472,
      "chem": 4473,
      "nature": 4474,
      "original": 4475,
      "fif": 4476,
      "vey": 4477,
      "bert": 4478,
      "strongly": 4479,
      "eliz": 4480,
      "reagan": 4481,
      "uma": 4482,
      "reflect": 4483,
      "promote": 4484,
      "demands": 4485,
      "allegedly": 4486,
      "temporary": 4487,
      "uit": 4488,
      "zz": 4489,
      "grass": 4490,
      "gyn": 4491,
      "anced": 4492,
      "tower": 4493,
      "hoped": 4494,
      "quarter": 4495,
      "camer": 4496,
      "duter": 4497,
      "closer": 4498,
      "ethics": 4499,
      "sof": 4500,
      "quir": 4501,
      "gary": 4502,
      "sham": 4503,
      "ideas": 4504,
      "canad": 4505,
      "lynch": 4506,
      "kar": 4507,
      "indones": 4508,
      "drawn": 4509,
      "elizabeth": 4510,
      "duterte": 4511,
      "commerce": 4512,
      "innocent": 4513,
      "bow": 4514,
      "agent": 4515,
      "gotten": 4516,
      "text": 4517,
      "anthem": 4518,
      "notice": 4519,
      "learned": 4520,
      "deficit": 4521,
      "walk": 4522,
      "welcome": 4523,
      "introduced": 4524,
      "cathol": 4525,
      "ulted": 4526,
      "personally": 4527,
      "shortly": 4528,
      "38": 4529,
      "cold": 4530,
      "fans": 4531,
      "aca": 4532,
      "knowledge": 4533,
      "veto": 4534,
      "utr": 4535,
      "moves": 4536,
      "meanwhile": 4537,
      "injured": 4538,
      "prohib": 4539,
      "percentage": 4540,
      "handed": 4541,
      "reportedly": 4542,
      "baby": 4543,
      "naf": 4544,
      "ctors": 4545,
      "prefer": 4546,
      "taxpayers": 4547,
      "brutal": 4548,
      "weigh": 4549,
      "advisers": 4550,
      "rakh": 4551,
      "reaction": 4552,
      "farm": 4553,
      "dispute": 4554,
      "kin": 4555,
      "chaos": 4556,
      "trillion": 4557,
      "rising": 4558,
      "adam": 4559,
      "ankara": 4560,
      "fla": 4561,
      "recover": 4562,
      "users": 4563,
      "medic": 4564,
      "spar": 4565,
      "unfortunately": 4566,
      "captured": 4567,
      "dinner": 4568,
      "engine": 4569,
      "chamber": 4570,
      "hazi": 4571,
      "detention": 4572,
      "seeks": 4573,
      "model": 4574,
      "discussions": 4575,
      "onto": 4576,
      "plant": 4577,
      "historic": 4578,
      "adop": 4579,
      "shift": 4580,
      "pulled": 4581,
      "sudan": 4582,
      "intel": 4583,
      "owner": 4584,
      "links": 4585,
      "shouldn": 4586,
      "suspic": 4587,
      "palestinians": 4588,
      "rakhine": 4589,
      "yad": 4590,
      "vehic": 4591,
      "fears": 4592,
      "tha": 4593,
      "moderate": 4594,
      "benghazi": 4595,
      "astr": 4596,
      "tren": 4597,
      "headed": 4598,
      "netany": 4599,
      "acceptable": 4600,
      "fan": 4601,
      "lind": 4602,
      "iously": 4603,
      "google": 4604,
      "abandon": 4605,
      "master": 4606,
      "scale": 4607,
      "connect": 4608,
      "harassment": 4609,
      "shel": 4610,
      "learn": 4611,
      "defended": 4612,
      "ribut": 4613,
      "magazine": 4614,
      "quit": 4615,
      "prominent": 4616,
      "ivers": 4617,
      "rein": 4618,
      "minute": 4619,
      "apply": 4620,
      "campus": 4621,
      "km": 4622,
      "noon": 4623,
      "link": 4624,
      "graphic": 4625,
      "dictator": 4626,
      "legitimate": 4627,
      "wounded": 4628,
      "vehicles": 4629,
      "outcome": 4630,
      "ause": 4631,
      "posing": 4632,
      "mentioned": 4633,
      "chemical": 4634,
      "65": 4635,
      "ession": 4636,
      "peaceful": 4637,
      "mistake": 4638,
      "lam": 4639,
      "pool": 4640,
      "evil": 4641,
      "denoun": 4642,
      "assets": 4643,
      "river": 4644,
      "deaths": 4645,
      "editorial": 4646,
      "endorsed": 4647,
      "lay": 4648,
      "donations": 4649,
      "intention": 4650,
      "openly": 4651,
      "determine": 4652,
      "netanyahu": 4653,
      "($": 4654,
      "ather": 4655,
      "ye": 4656,
      "mitt": 4657,
      "dar": 4658,
      "poses": 4659,
      "journalist": 4660,
      "consult": 4661,
      "dden": 4662,
      "kingdom": 4663,
      "overwhelming": 4664,
      "cc": 4665,
      "ients": 4666,
      "usually": 4667,
      "jordan": 4668,
      "stress": 4669,
      "adem": 4670,
      "gulf": 4671,
      "las": 4672,
      "asing": 4673,
      "uro": 4674,
      "players": 4675,
      "files": 4676,
      "anonymity": 4677,
      "ross": 4678,
      "basically": 4679,
      "pledge": 4680,
      "leaves": 4681,
      "bundy": 4682,
      "tes": 4683,
      "finding": 4684,
      "forcing": 4685,
      "everybody": 4686,
      "messages": 4687,
      "boyc": 4688,
      "frust": 4689,
      "aley": 4690,
      "ami": 4691,
      "formal": 4692,
      "somebody": 4693,
      "weapon": 4694,
      "khan": 4695,
      "alt": 4696,
      "circu": 4697,
      "concluded": 4698,
      "delivered": 4699,
      "francisco": 4700,
      "fought": 4701,
      "jes": 4702,
      "identity": 4703,
      "turns": 4704,
      "attempted": 4705,
      ");": 4706,
      "retire": 4707,
      "proved": 4708,
      "specifically": 4709,
      "aside": 4710,
      "uments": 4711,
      "ashes": 4712,
      "ucky": 4713,
      "49": 4714,
      "pact": 4715,
      "rose": 4716,
      "distur": 4717,
      "kenned": 4718,
      "bay": 4719,
      "pover": 4720,
      "academ": 4721,
      "belong": 4722,
      "compe": 4723,
      "performan": 4724,
      "accusing": 4725,
      "difference": 4726,
      "suggesting": 4727,
      "poverty": 4728,
      "moc": 4729,
      "overe": 4730,
      "monitor": 4731,
      "christmas": 4732,
      "eld": 4733,
      "abd": 4734,
      "miller": 4735,
      "regulation": 4736,
      "priebus": 4737,
      "employee": 4738,
      "advocates": 4739,
      "pd": 4740,
      "uted": 4741,
      "penal": 4742,
      "protecting": 4743,
      "sle": 4744,
      "represents": 4745,
      "reilly": 4746,
      "agues": 4747,
      "targeting": 4748,
      "overall": 4749,
      "cars": 4750,
      "stands": 4751,
      "continuing": 4752,
      "disgusting": 4753,
      "ja": 4754,
      "malays": 4755,
      "overeign": 4756,
      "sovereign": 4757,
      "section": 4758,
      "divided": 4759,
      "imm": 4760,
      "suspended": 4761,
      "lean": 4762,
      "cancer": 4763,
      "sett": 4764,
      "quarters": 4765,
      "unfair": 4766,
      "embr": 4767,
      "twice": 4768,
      "personnel": 4769,
      "resolve": 4770,
      "ua": 4771,
      "citizenship": 4772,
      "33": 4773,
      "sd": 4774,
      "beaut": 4775,
      "destroyed": 4776,
      "circuit": 4777,
      "reference": 4778,
      "remaining": 4779,
      "referred": 4780,
      "engl": 4781,
      "accompl": 4782,
      "sudden": 4783,
      "tonight": 4784,
      "missing": 4785,
      "allows": 4786,
      "determined": 4787,
      "commercial": 4788,
      "gorsuch": 4789,
      "grace": 4790,
      "guess": 4791,
      "ratings": 4792,
      "illi": 4793,
      "initially": 4794,
      "kennedy": 4795,
      "jeb": 4796,
      "riyad": 4797,
      "canadian": 4798,
      "nafta": 4799,
      "wid": 4800,
      "stun": 4801,
      "ums": 4802,
      "poland": 4803,
      "politician": 4804,
      "negotiate": 4805,
      "accepted": 4806,
      "endorsement": 4807,
      "english": 4808,
      "eda": 4809,
      "dark": 4810,
      "oted": 4811,
      "thomas": 4812,
      "tool": 4813,
      "shop": 4814,
      "broken": 4815,
      "targets": 4816,
      "suffered": 4817,
      "imagine": 4818,
      "eper": 4819,
      "rated": 4820,
      "podest": 4821,
      "load": 4822,
      "ffic": 4823,
      "priority": 4824,
      "suits": 4825,
      "meddling": 4826,
      "kurds": 4827,
      "aur": 4828,
      "managed": 4829,
      "enses": 4830,
      "consum": 4831,
      "surpris": 4832,
      "handle": 4833,
      "partnership": 4834,
      "nev": 4835,
      "mining": 4836,
      "eva": 4837,
      "preh": 4838,
      "cert": 4839,
      "nick": 4840,
      "swee": 4841,
      "print": 4842,
      "assistant": 4843,
      "registered": 4844,
      "prompted": 4845,
      "outlets": 4846,
      "experi": 4847,
      "argument": 4848,
      "condemned": 4849,
      "ci": 4850,
      "blog": 4851,
      "complex": 4852,
      "devast": 4853,
      "neighborhood": 4854,
      "pipeline": 4855,
      "fres": 4856,
      "unprecedent": 4857,
      "margin": 4858,
      "issions": 4859,
      "solid": 4860,
      "tests": 4861,
      "double": 4862,
      "circum": 4863,
      "unprecedented": 4864,
      "topic": 4865,
      "cruc": 4866,
      "talked": 4867,
      "increasing": 4868,
      "mandate": 4869,
      "ching": 4870,
      "guid": 4871,
      "apping": 4872,
      "approve": 4873,
      "succeed": 4874,
      "parliamentary": 4875,
      "folks": 4876,
      "mix": 4877,
      "itation": 4878,
      "terrible": 4879,
      "severe": 4880,
      "jackson": 4881,
      "bridge": 4882,
      "kirk": 4883,
      "tay": 4884,
      "acher": 4885,
      "vet": 4886,
      "thetic": 4887,
      "justices": 4888,
      "transfer": 4889,
      "fourth": 4890,
      "brag": 4891,
      "babwe": 4892,
      "potus": 4893,
      "resigned": 4894,
      "zimbabwe": 4895,
      "mob": 4896,
      "mos": 4897,
      "peter": 4898,
      "violation": 4899,
      "legislature": 4900,
      "advice": 4901,
      "requires": 4902,
      "effectively": 4903,
      "qualified": 4904,
      "ku": 4905,
      "trumps": 4906,
      "makers": 4907,
      "ander": 4908,
      "champ": 4909,
      "sos": 4910,
      "migration": 4911,
      "corporations": 4912,
      "bound": 4913,
      "becomes": 4914,
      "somehow": 4915,
      "undermine": 4916,
      "riyadh": 4917,
      "niger": 4918,
      "enjoy": 4919,
      "lip": 4920,
      "iban": 4921,
      "interviews": 4922,
      "executives": 4923,
      "minorities": 4924,
      "narrative": 4925,
      "davis": 4926,
      "tun": 4927,
      "toler": 4928,
      "exposed": 4929,
      "197": 4930,
      "changing": 4931,
      "kat": 4932,
      "marked": 4933,
      "joke": 4934,
      "angela": 4935,
      "famous": 4936,
      "filled": 4937,
      "47": 4938,
      "file": 4939,
      "cutting": 4940,
      "colleagues": 4941,
      "eyes": 4942,
      "symbol": 4943,
      "informed": 4944,
      "trading": 4945,
      "williams": 4946,
      "easily": 4947,
      "hypocr": 4948,
      "taliban": 4949,
      "tered": 4950,
      "write": 4951,
      "trouble": 4952,
      "occurred": 4953,
      "male": 4954,
      "nd": 4955,
      "aration": 4956,
      "plot": 4957,
      "indiana": 4958,
      "bia": 4959,
      "hang": 4960,
      "mort": 4961,
      "suicide": 4962,
      "leads": 4963,
      "reading": 4964,
      "2005": 4965,
      "sist": 4966,
      "ases": 4967,
      "soros": 4968,
      "split": 4969,
      "permanent": 4970,
      "itude": 4971,
      "backs": 4972,
      "guest": 4973,
      "jac": 4974,
      "receiving": 4975,
      "afraid": 4976,
      "generation": 4977,
      "guards": 4978,
      "clevel": 4979,
      "outs": 4980,
      "afternoon": 4981,
      "computer": 4982,
      "distribut": 4983,
      "equal": 4984,
      "onom": 4985,
      "warrant": 4986,
      "basic": 4987,
      "appointment": 4988,
      "haley": 4989,
      "nfl": 4990,
      "iet": 4991,
      "skin": 4992,
      "leaked": 4993,
      "ophob": 4994,
      "duty": 4995,
      "podesta": 4996,
      "cleveland": 4997,
      "inquir": 4998,
      "reid": 4999,
      "charlot": 5000,
      "photograp": 5001,
      "conflicts": 5002,
      "fundament": 5003,
      "stuff": 5004,
      "league": 5005,
      "roughly": 5006,
      "hes": 5007,
      "poc": 5008,
      "organized": 5009,
      "opponent": 5010,
      "acknowledged": 5011,
      "enemy": 5012,
      "fle": 5013,
      "stick": 5014,
      "branch": 5015,
      "latin": 5016,
      "ships": 5017,
      "dedu": 5018,
      "package": 5019,
      "36": 5020,
      "handling": 5021,
      "accident": 5022,
      "recommend": 5023,
      "fficient": 5024,
      "boss": 5025,
      "gab": 5026,
      "asks": 5027,
      "acity": 5028,
      "irt": 5029,
      "sole": 5030,
      "maduro": 5031,
      "electric": 5032,
      "tank": 5033,
      "chose": 5034,
      "bern": 5035,
      "2019": 5036,
      "contrast": 5037,
      "agreements": 5038,
      "patriot": 5039,
      "motiv": 5040,
      "nazi": 5041,
      "pin": 5042,
      "offering": 5043,
      "connection": 5044,
      "madrid": 5045,
      "taxpayer": 5046,
      "mul": 5047,
      "obtained": 5048,
      "formally": 5049,
      "predec": 5050,
      "southeast": 5051,
      "picked": 5052,
      "established": 5053,
      "predecess": 5054,
      "gut": 5055,
      "psy": 5056,
      "visited": 5057,
      "44": 5058,
      "stances": 5059,
      "ipal": 5060,
      "billions": 5061,
      "wards": 5062,
      "divers": 5063,
      "bigger": 5064,
      "demanded": 5065,
      "guys": 5066,
      "banking": 5067,
      "limits": 5068,
      "larger": 5069,
      "currency": 5070,
      "differences": 5071,
      "performance": 5072,
      "confront": 5073,
      "ifer": 5074,
      "akes": 5075,
      "watched": 5076,
      "www": 5077,
      "founded": 5078,
      "footage": 5079,
      "entered": 5080,
      "abil": 5081,
      "therefore": 5082,
      "civilian": 5083,
      "nevada": 5084,
      "wart": 5085,
      "criminals": 5086,
      "demanding": 5087,
      "dress": 5088,
      "utation": 5089,
      "corker": 5090,
      "equip": 5091,
      "size": 5092,
      "direction": 5093,
      "listed": 5094,
      "studies": 5095,
      "purpose": 5096,
      "jury": 5097,
      "dealing": 5098,
      "qaeda": 5099,
      "desperate": 5100,
      "constant": 5101,
      "iful": 5102,
      "hoping": 5103,
      "vulner": 5104,
      "tack": 5105,
      "exports": 5106,
      "shares": 5107,
      "granted": 5108,
      "sweden": 5109,
      "followers": 5110,
      "scrut": 5111,
      "rif": 5112,
      "defending": 5113,
      "emphas": 5114,
      "amazing": 5115,
      "phas": 5116,
      "chen": 5117,
      "provides": 5118,
      "professional": 5119,
      "greens": 5120,
      "bodies": 5121,
      "fasc": 5122,
      "assass": 5123,
      "deny": 5124,
      "lands": 5125,
      "protected": 5126,
      "carter": 5127,
      "conversations": 5128,
      "passa": 5129,
      "sin": 5130,
      "requested": 5131,
      "kerry": 5132,
      "labour": 5133,
      "noting": 5134,
      "stepped": 5135,
      "interesting": 5136,
      "emot": 5137,
      "meth": 5138,
      "okay": 5139,
      "neighb": 5140,
      "deter": 5141,
      "bloom": 5142,
      "elines": 5143,
      "angeles": 5144,
      "strengthen": 5145,
      "chip": 5146,
      "unlike": 5147,
      "flood": 5148,
      "rat": 5149,
      "sted": 5150,
      "adel": 5151,
      "unit": 5152,
      "violations": 5153,
      "popul": 5154,
      "garland": 5155,
      "37": 5156,
      "nancy": 5157,
      "entry": 5158,
      "youth": 5159,
      "speed": 5160,
      "visions": 5161,
      "generally": 5162,
      "nik": 5163,
      "uries": 5164,
      "patrick": 5165,
      "balance": 5166,
      "closure": 5167,
      "season": 5168,
      "bail": 5169,
      "vant": 5170,
      "chant": 5171,
      "abad": 5172,
      "deadly": 5173,
      "favorite": 5174,
      "temper": 5175,
      "beach": 5176,
      "shr": 5177,
      "officially": 5178,
      "cerem": 5179,
      "consumer": 5180,
      "lebanese": 5181,
      "customers": 5182,
      "jay": 5183,
      "itz": 5184,
      "conven": 5185,
      "flights": 5186,
      "memor": 5187,
      "selling": 5188,
      "kic": 5189,
      "mess": 5190,
      "nra": 5191,
      "uli": 5192,
      "mits": 5193,
      "isol": 5194,
      "igned": 5195,
      "upset": 5196,
      "ranking": 5197,
      "treaty": 5198,
      "46": 5199,
      "lor": 5200,
      "chances": 5201,
      "abor": 5202,
      "pathetic": 5203,
      "restaur": 5204,
      "regulatory": 5205,
      "regardless": 5206,
      "strategist": 5207,
      "zuma": 5208,
      "desire": 5209,
      "shooter": 5210,
      "initiative": 5211,
      "52": 5212,
      "rnc": 5213,
      "understanding": 5214,
      "theresa": 5215,
      "catholic": 5216,
      "rush": 5217,
      "recru": 5218,
      "lived": 5219,
      "refuse": 5220,
      "charles": 5221,
      "directed": 5222,
      "importance": 5223,
      "crucial": 5224,
      "vast": 5225,
      "todd": 5226,
      "submit": 5227,
      "invited": 5228,
      "surrounding": 5229,
      "boe": 5230,
      "division": 5231,
      "ray": 5232,
      "truck": 5233,
      "presumpt": 5234,
      "wars": 5235,
      "worker": 5236,
      "violated": 5237,
      "ses": 5238,
      "actors": 5239,
      "stro": 5240,
      "nominees": 5241,
      "entirely": 5242,
      "fresh": 5243,
      "mere": 5244,
      "resort": 5245,
      "emissions": 5246,
      "supply": 5247,
      "deser": 5248,
      "operating": 5249,
      "2007": 5250,
      "passing": 5251,
      "rial": 5252,
      "sust": 5253,
      "harder": 5254,
      "aliens": 5255,
      "kellyanne": 5256,
      "gonna": 5257,
      "encing": 5258,
      "cow": 5259,
      "tone": 5260,
      "exit": 5261,
      "iana": 5262,
      "runs": 5263,
      "produced": 5264,
      "shocking": 5265,
      "39": 5266,
      "rang": 5267,
      "ena": 5268,
      "formed": 5269,
      "anybody": 5270,
      "expans": 5271,
      "insurers": 5272,
      "32": 5273,
      "bak": 5274,
      "dak": 5275,
      "jong": 5276,
      "replied": 5277,
      "carl": 5278,
      "relative": 5279,
      "engaged": 5280,
      "holiday": 5281,
      "wilson": 5282,
      "engage": 5283,
      "!!": 5284,
      "kent": 5285,
      "hacked": 5286,
      "emerged": 5287,
      "autonom": 5288,
      "gap": 5289,
      "proving": 5290,
      "headquarters": 5291,
      "kansas": 5292,
      "unes": 5293,
      "shout": 5294,
      "permit": 5295,
      "contacts": 5296,
      "jews": 5297,
      "chi": 5298,
      "sued": 5299,
      "preparing": 5300,
      "practices": 5301,
      "zeal": 5302,
      "ordinary": 5303,
      "rivals": 5304,
      "wow": 5305,
      "recess": 5306,
      "!”": 5307,
      "hong": 5308,
      "ene": 5309,
      "item": 5310,
      "hispanic": 5311,
      "display": 5312,
      "socialist": 5313,
      "abilities": 5314,
      "spons": 5315,
      "premi": 5316,
      "raid": 5317,
      "replacement": 5318,
      "aggressive": 5319,
      "exercise": 5320,
      "uncertainty": 5321,
      "song": 5322,
      "task": 5323,
      "ches": 5324,
      "cambod": 5325,
      "ipsos": 5326,
      "geneva": 5327,
      "negotiating": 5328,
      "risks": 5329,
      "books": 5330,
      "leng": 5331,
      "atest": 5332,
      "obtain": 5333,
      "grat": 5334,
      "raq": 5335,
      "equipment": 5336,
      "dro": 5337,
      "owski": 5338,
      "likes": 5339,
      "rod": 5340,
      "josh": 5341,
      "196": 5342,
      "peninsu": 5343,
      "struggling": 5344,
      "gaz": 5345,
      "tam": 5346,
      "forget": 5347,
      "married": 5348,
      "insisted": 5349,
      "passage": 5350,
      "peninsula": 5351,
      "gian": 5352,
      "eless": 5353,
      "rapid": 5354,
      "goldman": 5355,
      "requirements": 5356,
      "sorry": 5357,
      "kn": 5358,
      "tz": 5359,
      "reser": 5360,
      "quiet": 5361,
      "2001": 5362,
      "alien": 5363,
      "kyo": 5364,
      "pir": 5365,
      "revers": 5366,
      "reck": 5367,
      "realize": 5368,
      "interested": 5369,
      "collins": 5370,
      "welcomed": 5371,
      "kins": 5372,
      "sharing": 5373,
      "attorneys": 5374,
      "stron": 5375,
      "scream": 5376,
      "refusing": 5377,
      "presented": 5378,
      "apple": 5379,
      "burn": 5380,
      "jas": 5381,
      "humili": 5382,
      "gathered": 5383,
      "signature": 5384,
      "liberty": 5385,
      "bond": 5386,
      "kne": 5387,
      "impossible": 5388,
      "irs": 5389,
      "manuel": 5390,
      "feb": 5391,
      "actor": 5392,
      "deadline": 5393,
      "forum": 5394,
      "plus": 5395,
      "centers": 5396,
      "spd": 5397,
      "visas": 5398,
      "dram": 5399,
      "investigated": 5400,
      "discovered": 5401,
      "fifth": 5402,
      "beir": 5403,
      "degree": 5404,
      "withdra": 5405,
      "assert": 5406,
      "grounds": 5407,
      "oval": 5408,
      "euros": 5409,
      "hateful": 5410,
      "1990": 5411,
      "lux": 5412,
      "suspects": 5413,
      "spring": 5414,
      "apo": 5415,
      "unve": 5416,
      "undocumented": 5417,
      "parag": 5418,
      "greatest": 5419,
      "bottom": 5420,
      "presumptive": 5421,
      "enty": 5422,
      "kevin": 5423,
      "shell": 5424,
      "mari": 5425,
      "militia": 5426,
      "dall": 5427,
      "detain": 5428,
      "anta": 5429,
      "highlight": 5430,
      "village": 5431,
      "comfortable": 5432,
      "buying": 5433,
      "halt": 5434,
      "princi": 5435,
      "raqqa": 5436,
      "irma": 5437,
      "cker": 5438,
      "hired": 5439,
      "ls": 5440,
      "swing": 5441,
      "pruit": 5442,
      "frame": 5443,
      "partial": 5444,
      "anymore": 5445,
      "okla": 5446,
      "collapse": 5447,
      "pruitt": 5448,
      "mut": 5449,
      "entit": 5450,
      "urban": 5451,
      "serge": 5452,
      "funny": 5453,
      "substant": 5454,
      "mrs": 5455,
      "industrial": 5456,
      "cate": 5457,
      "rou": 5458,
      "seized": 5459,
      "identify": 5460,
      "brian": 5461,
      "representing": 5462,
      "networks": 5463,
      "nominated": 5464,
      "?”": 5465,
      "rice": 5466,
      "sta": 5467,
      "isa": 5468,
      "harvey": 5469,
      "nominating": 5470,
      "fing": 5471,
      "jur": 5472,
      "lash": 5473,
      "igdemon": 5474,
      "export": 5475,
      "capable": 5476,
      "puigdemon": 5477,
      "complained": 5478,
      "puigdemont": 5479,
      "gm": 5480,
      "gus": 5481,
      "hitler": 5482,
      "telephone": 5483,
      "divisive": 5484,
      "checks": 5485,
      "torture": 5486,
      "urge": 5487,
      "relevant": 5488,
      "susan": 5489,
      "homa": 5490,
      "ipped": 5491,
      "haw": 5492,
      "intim": 5493,
      "worn": 5494,
      "causing": 5495,
      "disrupt": 5496,
      "discussing": 5497,
      "photos": 5498,
      "gal": 5499,
      "epis": 5500,
      "surprised": 5501,
      "wides": 5502,
      "dele": 5503,
      "doj": 5504,
      "pread": 5505,
      "ballots": 5506,
      "manufacturing": 5507,
      "”.": 5508,
      "saving": 5509,
      "iction": 5510,
      "mug": 5511,
      "committees": 5512,
      "commissioner": 5513,
      "represented": 5514,
      "authorized": 5515,
      "dallas": 5516,
      "widespread": 5517,
      "ende": 5518,
      "anyway": 5519,
      "flow": 5520,
      "diversity": 5521,
      "sacr": 5522,
      "acqu": 5523,
      "dete": 5524,
      "amne": 5525,
      "deem": 5526,
      "agers": 5527,
      "easier": 5528,
      "argue": 5529,
      "revel": 5530,
      "neo": 5531,
      "proven": 5532,
      "charity": 5533,
      "privacy": 5534,
      "instein": 5535,
      "ilit": 5536,
      "elig": 5537,
      "friendly": 5538,
      "associates": 5539,
      "dakota": 5540,
      "unte": 5541,
      "urging": 5542,
      "flick": 5543,
      "elsewhere": 5544,
      "integrity": 5545,
      "oklahoma": 5546,
      "55": 5547,
      "wear": 5548,
      "visiting": 5549,
      "juana": 5550,
      "daniel": 5551,
      "houses": 5552,
      "champion": 5553,
      "anth": 5554,
      "mobil": 5555,
      "element": 5556,
      "budd": 5557,
      "patrol": 5558,
      "institution": 5559,
      "ape": 5560,
      "bold": 5561,
      "incidents": 5562,
      "fier": 5563,
      "laid": 5564,
      "newly": 5565,
      "virtu": 5566,
      "broader": 5567,
      "wrongdoing": 5568,
      "hatred": 5569,
      "rigged": 5570,
      "vegas": 5571,
      "chos": 5572,
      "nationalist": 5573,
      "duke": 5574,
      "yourself": 5575,
      "entertain": 5576,
      "amnesty": 5577,
      "trum": 5578,
      "ucker": 5579,
      "sexually": 5580,
      "colorado": 5581,
      "nas": 5582,
      "wy": 5583,
      "oring": 5584,
      "shall": 5585,
      "flat": 5586,
      "music": 5587,
      "sanct": 5588,
      "stronger": 5589,
      "bare": 5590,
      "deliber": 5591,
      "irish": 5592,
      "horrible": 5593,
      "resistance": 5594,
      "slo": 5595,
      "skept": 5596,
      "threw": 5597,
      "erts": 5598,
      "thes": 5599,
      "icop": 5600,
      "clin": 5601,
      "manip": 5602,
      "offers": 5603,
      "promising": 5604,
      "welfare": 5605,
      "expansion": 5606,
      "chain": 5607,
      "abled": 5608,
      "alled": 5609,
      "elite": 5610,
      "drag": 5611,
      "volunte": 5612,
      "aska": 5613,
      "attempting": 5614,
      "strength": 5615,
      "beautiful": 5616,
      "jin": 5617,
      "itals": 5618,
      "occas": 5619,
      "puts": 5620,
      "breaks": 5621,
      "fleeing": 5622,
      "hilarious": 5623,
      "neighbors": 5624,
      "otry": 5625,
      "sny": 5626,
      "sap": 5627,
      "hawa": 5628,
      "offices": 5629,
      "ucks": 5630,
      "uset": 5631,
      "2006": 5632,
      "bloomberg": 5633,
      "intimid": 5634,
      "grown": 5635,
      "driven": 5636,
      "facilities": 5637,
      "addressed": 5638,
      "challenged": 5639,
      "promoting": 5640,
      "voy": 5641,
      "riots": 5642,
      "massach": 5643,
      "buildings": 5644,
      "customs": 5645,
      "usetts": 5646,
      "ini": 5647,
      "sele": 5648,
      "capacity": 5649,
      "winner": 5650,
      "goods": 5651,
      "affili": 5652,
      "sentenced": 5653,
      "reaching": 5654,
      "forth": 5655,
      "reputation": 5656,
      "interviewed": 5657,
      "alongside": 5658,
      "iffs": 5659,
      "produce": 5660,
      "massachusetts": 5661,
      "compreh": 5662,
      "lawsuits": 5663,
      "steel": 5664,
      "leaks": 5665,
      "embarrassing": 5666,
      "title": 5667,
      "snyder": 5668,
      "maker": 5669,
      "colom": 5670,
      "bigotry": 5671,
      "withdraw": 5672,
      "pregn": 5673,
      "mainly": 5674,
      "matic": 5675,
      "neighboring": 5676,
      "34": 5677,
      "tri": 5678,
      "notes": 5679,
      "exempt": 5680,
      "strange": 5681,
      "dated": 5682,
      "tag": 5683,
      "attle": 5684,
      "colum": 5685,
      "deportation": 5686,
      "paragrap": 5687,
      "flickr": 5688,
      "tend": 5689,
      "declaration": 5690,
      "casual": 5691,
      "bombing": 5692,
      "suffering": 5693,
      "accurate": 5694,
      "shootings": 5695,
      "motor": 5696,
      "complaint": 5697,
      "corner": 5698,
      "smaller": 5699,
      "rescue": 5700,
      "gage": 5701,
      "neutr": 5702,
      "ignored": 5703,
      "blacks": 5704,
      "jason": 5705,
      "bah": 5706,
      "inspe": 5707,
      "2020": 5708,
      "bilateral": 5709,
      "cultural": 5710,
      "consumers": 5711,
      "pension": 5712,
      "tokyo": 5713,
      "nest": 5714,
      "indicated": 5715,
      "surge": 5716,
      "arrests": 5717,
      "eliminate": 5718,
      "atlantic": 5719,
      "neutral": 5720,
      "oulos": 5721,
      "conc": 5722,
      "tailed": 5723,
      "protections": 5724,
      "nearby": 5725,
      "marijuana": 5726,
      "bear": 5727,
      "begun": 5728,
      "abed": 5729,
      "closing": 5730,
      "hearings": 5731,
      "clip": 5732,
      "australian": 5733,
      "phase": 5734,
      "zealand": 5735,
      "anthony": 5736,
      "kong": 5737,
      "stol": 5738,
      "sored": 5739,
      "carbon": 5740,
      "cape": 5741,
      "profits": 5742,
      "kurdist": 5743,
      "weren": 5744,
      "encourage": 5745,
      "pursue": 5746,
      "kentucky": 5747,
      "miami": 5748,
      "developing": 5749,
      "map": 5750,
      "esp": 5751,
      "pointing": 5752,
      "independently": 5753,
      "petition": 5754,
      "spirit": 5755,
      "kurdistan": 5756,
      "perfectly": 5757,
      "chosen": 5758,
      "destruction": 5759,
      "movie": 5760,
      "speeches": 5761,
      "giuli": 5762,
      "inappropriate": 5763,
      "enders": 5764,
      "boys": 5765,
      "investments": 5766,
      "loved": 5767,
      "subscr": 5768,
      "brothers": 5769,
      "credibility": 5770,
      "joining": 5771,
      "waste": 5772,
      "insp": 5773,
      "boston": 5774,
      "debates": 5775,
      "keeps": 5776,
      "recognized": 5777,
      "joseph": 5778,
      "jesus": 5779,
      "predecessor": 5780,
      "bans": 5781,
      "moon": 5782,
      "ignore": 5783,
      "scot": 5784,
      "warm": 5785,
      "candidacy": 5786,
      "hosts": 5787,
      "hostile": 5788,
      "separat": 5789,
      "satis": 5790,
      "frequently": 5791,
      "dump": 5792,
      "nand": 5793,
      "rural": 5794,
      "shad": 5795,
      "brilli": 5796,
      "evac": 5797,
      "legacy": 5798,
      "covering": 5799,
      "feeling": 5800,
      "arguing": 5801,
      "gathering": 5802,
      "excuse": 5803,
      "bos": 5804,
      "rs": 5805,
      "theory": 5806,
      "trude": 5807,
      "disrespect": 5808,
      "nationwide": 5809,
      "holders": 5810,
      "tension": 5811,
      "circumstances": 5812,
      "bie": 5813,
      "recount": 5814,
      "rov": 5815,
      "fool": 5816,
      "square": 5817,
      "supremacists": 5818,
      "disturbing": 5819,
      "cair": 5820,
      "stal": 5821,
      "boil": 5822,
      "driver": 5823,
      "accountable": 5824,
      "regularly": 5825,
      "hide": 5826,
      "steven": 5827,
      "eman": 5828,
      "breach": 5829,
      "filing": 5830,
      "feels": 5831,
      "custody": 5832,
      "opportun": 5833,
      "indonesia": 5834,
      "sleep": 5835,
      "scrutiny": 5836,
      "600": 5837,
      "800": 5838,
      "swi": 5839,
      "snow": 5840,
      "voc": 5841,
      "rey": 5842,
      "forms": 5843,
      "camps": 5844,
      "match": 5845,
      "brainforce": 5846,
      "punch": 5847,
      "ule": 5848,
      "royal": 5849,
      "loans": 5850,
      "gingrich": 5851,
      "struggle": 5852,
      "abdul": 5853,
      "hey": 5854,
      "responding": 5855,
      "keny": 5856,
      "bankrupt": 5857,
      "nazis": 5858,
      "shif": 5859,
      "fault": 5860,
      "loves": 5861,
      "matthe": 5862,
      "constitu": 5863,
      "conclusion": 5864,
      "ticket": 5865,
      "physical": 5866,
      "acked": 5867,
      "spy": 5868,
      "cycle": 5869,
      "sounds": 5870,
      "giuliani": 5871,
      "bust": 5872,
      "stic": 5873,
      "lewis": 5874,
      "seoul": 5875,
      "doctor": 5876,
      "doss": 5877,
      "latino": 5878,
      "arrange": 5879,
      "connected": 5880,
      "lap": 5881,
      "pil": 5882,
      "remo": 5883,
      "tape": 5884,
      "string": 5885,
      "foster": 5886,
      "traveling": 5887,
      "convinc": 5888,
      "kiss": 5889,
      "thal": 5890,
      "poison": 5891,
      "camera": 5892,
      "intervention": 5893,
      "viewed": 5894,
      "migrant": 5895,
      "restore": 5896,
      "lists": 5897,
      "priorities": 5898,
      "silence": 5899,
      "jared": 5900,
      "lights": 5901,
      "pending": 5902,
      "perpe": 5903,
      "counts": 5904,
      "convince": 5905,
      "scheme": 5906,
      "equality": 5907,
      "vig": 5908,
      "vital": 5909,
      "alle": 5910,
      "itors": 5911,
      "aspect": 5912,
      "sured": 5913,
      "ouri": 5914,
      "nationally": 5915,
      "speaks": 5916,
      "developed": 5917,
      "screengrab": 5918,
      "enemies": 5919,
      "daca": 5920,
      "nut": 5921,
      "acing": 5922,
      "abort": 5923,
      "grade": 5924,
      "disease": 5925,
      "warming": 5926,
      "questioning": 5927,
      "suggests": 5928,
      "temporarily": 5929,
      "inquiry": 5930,
      "gall": 5931,
      "chap": 5932,
      "istics": 5933,
      "iance": 5934,
      "elements": 5935,
      "tea": 5936,
      "damn": 5937,
      "teachers": 5938,
      "leaning": 5939,
      "ceremony": 5940,
      "nell": 5941,
      "hair": 5942,
      "megyn": 5943,
      "consideration": 5944,
      "football": 5945,
      "vulnerable": 5946,
      "trudeau": 5947,
      "wave": 5948,
      "infe": 5949,
      "maine": 5950,
      "complaints": 5951,
      "femin": 5952,
      "lobbying": 5953,
      "tactics": 5954,
      "omo": 5955,
      "compromise": 5956,
      "quake": 5957,
      "valid": 5958,
      "subsidies": 5959,
      "segment": 5960,
      "justin": 5961,
      "retali": 5962,
      "kills": 5963,
      "juli": 5964,
      "reasonable": 5965,
      "narrow": 5966,
      "witnesses": 5967,
      "gradu": 5968,
      "^^": 5969,
      "bren": 5970,
      "liar": 5971,
      "sufficient": 5972,
      "insane": 5973,
      "territor": 5974,
      "harry": 5975,
      "fewer": 5976,
      "essentially": 5977,
      "sweeping": 5978,
      "smug": 5979,
      "detailed": 5980,
      "reserve": 5981,
      "throwing": 5982,
      "subpo": 5983,
      "holder": 5984,
      "contributions": 5985,
      "envoy": 5986,
      "sem": 5987,
      "troll": 5988,
      "comply": 5989,
      "airlines": 5990,
      "participate": 5991,
      "sister": 5992,
      "beirut": 5993,
      "dossier": 5994,
      "jon": 5995,
      "mond": 5996,
      "departure": 5997,
      "testify": 5998,
      "diplomacy": 5999,
      "effects": 6000,
      "opinions": 6001,
      "kh": 6002,
      "tied": 6003,
      "amed": 6004,
      "fee": 6005,
      "supplies": 6006,
      "backlash": 6007,
      "rier": 6008,
      "giant": 6009,
      "principles": 6010,
      "inking": 6011,
      "interfer": 6012,
      "bias": 6013,
      "slight": 6014,
      "nieto": 6015,
      "kov": 6016,
      "loud": 6017,
      "unconstitutional": 6018,
      "utah": 6019,
      "threaten": 6020,
      "gained": 6021,
      "kno": 6022,
      "doctors": 6023,
      "correspond": 6024,
      "contracts": 6025,
      "1980": 6026,
      "banning": 6027,
      "advocacy": 6028,
      "sparked": 6029,
      "hunt": 6030,
      "nast": 6031,
      "yers": 6032,
      "bles": 6033,
      "cript": 6034,
      "lined": 6035,
      "rosen": 6036,
      "kirkuk": 6037,
      "uh": 6038,
      "isy": 6039,
      "acre": 6040,
      "ulting": 6041,
      "watchdog": 6042,
      "http": 6043,
      "audio": 6044,
      "maryland": 6045,
      "boycott": 6046,
      "mosque": 6047,
      "blind": 6048,
      "defence": 6049,
      "instance": 6050,
      "yeah": 6051,
      "si": 6052,
      "ura": 6053,
      "bashar": 6054,
      "iser": 6055,
      "sue": 6056,
      "deserve": 6057,
      "magn": 6058,
      "sach": 6059,
      "tip": 6060,
      "ooked": 6061,
      "hackers": 6062,
      "seekers": 6063,
      "mohammed": 6064,
      "supremacist": 6065,
      "retirement": 6066,
      "fundamental": 6067,
      "nsa": 6068,
      "stret": 6069,
      "stake": 6070,
      "ashing": 6071,
      "conce": 6072,
      "assum": 6073,
      "herit": 6074,
      "teacher": 6075,
      "campaigning": 6076,
      "badly": 6077,
      "blocking": 6078,
      "sanctuary": 6079,
      "bald": 6080,
      "nu": 6081,
      "wav": 6082,
      "missouri": 6083,
      "crew": 6084,
      "advisor": 6085,
      "writer": 6086,
      "fields": 6087,
      "scientists": 6088,
      "guarantee": 6089,
      "removal": 6090,
      "fb": 6091,
      "kaine": 6092,
      "pund": 6093,
      "ington": 6094,
      "weight": 6095,
      "maria": 6096,
      "myself": 6097,
      "thrown": 6098,
      "oz": 6099,
      "ivity": 6100,
      "payment": 6101,
      "somalia": 6102,
      "ox": 6103,
      "ulate": 6104,
      "timore": 6105,
      "replaced": 6106,
      "routine": 6107,
      "paragraph": 6108,
      "gled": 6109,
      "hatt": 6110,
      "els": 6111,
      "indic": 6112,
      "roots": 6113,
      "islands": 6114,
      "viewers": 6115,
      "ception": 6116,
      "pastor": 6117,
      "itable": 6118,
      "select": 6119,
      "requiring": 6120,
      "findings": 6121,
      "walking": 6122,
      "shots": 6123,
      "turnout": 6124,
      "malaysia": 6125,
      "provisions": 6126,
      "courage": 6127,
      "letting": 6128,
      "pically": 6129,
      "facility": 6130,
      "nandez": 6131,
      "vard": 6132,
      "wiret": 6133,
      "iest": 6134,
      "hosted": 6135,
      "baltimore": 6136,
      "deployed": 6137,
      "beliefs": 6138,
      "hawaii": 6139,
      "biz": 6140,
      "arre": 6141,
      "strict": 6142,
      "typically": 6143,
      "serves": 6144,
      "registration": 6145,
      "disputed": 6146,
      "purchase": 6147,
      "episode": 6148,
      "fi": 6149,
      "ari": 6150,
      "asion": 6151,
      "ulated": 6152,
      "ifa": 6153,
      "strip": 6154,
      "structive": 6155,
      "prisoners": 6156,
      "huff": 6157,
      "43": 6158,
      "goals": 6159,
      "extend": 6160,
      "argent": 6161,
      "odds": 6162,
      "pictures": 6163,
      "philadel": 6164,
      "philadelph": 6165,
      "shame": 6166,
      "apprec": 6167,
      "tougher": 6168,
      "sachs": 6169,
      "districts": 6170,
      "settled": 6171,
      "42": 6172,
      "whites": 6173,
      "sures": 6174,
      "manner": 6175,
      "spell": 6176,
      "regret": 6177,
      "imports": 6178,
      "virus": 6179,
      "declare": 6180,
      "expensive": 6181,
      "successfully": 6182,
      "louisiana": 6183,
      "aa": 6184,
      "plead": 6185,
      "sworn": 6186,
      "ilateral": 6187,
      "unusual": 6188,
      "burden": 6189,
      "divor": 6190,
      "fallen": 6191,
      "jailed": 6192,
      "originally": 6193,
      "dir": 6194,
      "rees": 6195,
      "congrat": 6196,
      "ables": 6197,
      "2000": 6198,
      "expanded": 6199,
      "lavrov": 6200,
      "68": 6201,
      "rum": 6202,
      "sis": 6203,
      "anywhere": 6204,
      "knowing": 6205,
      "militias": 6206,
      "controls": 6207,
      "advocate": 6208,
      "apologize": 6209,
      "philadelphia": 6210,
      "pound": 6211,
      "reiter": 6212,
      "alive": 6213,
      "consen": 6214,
      "suu": 6215,
      "spin": 6216,
      "sports": 6217,
      "comprehensive": 6218,
      "iron": 6219,
      "digital": 6220,
      "impeachment": 6221,
      "jinping": 6222,
      "51": 6223,
      "fdp": 6224,
      "shock": 6225,
      "gross": 6226,
      "walked": 6227,
      "extremist": 6228,
      "pace": 6229,
      "stable": 6230,
      "provision": 6231,
      "helicop": 6232,
      "jean": 6233,
      "blaming": 6234,
      "opposing": 6235,
      "opposite": 6236,
      "assange": 6237,
      "spon": 6238,
      "render": 6239,
      "killings": 6240,
      "gains": 6241,
      "murdered": 6242,
      "cambodia": 6243,
      "nunes": 6244,
      "retail": 6245,
      "iti": 6246,
      "confeder": 6247,
      "tony": 6248,
      "norm": 6249,
      "kenya": 6250,
      "kyi": 6251,
      "increases": 6252,
      "adopted": 6253,
      "erup": 6254,
      "edt": 6255,
      "clashes": 6256,
      "obstruction": 6257,
      "minnes": 6258,
      "persec": 6259,
      "threatens": 6260,
      "located": 6261,
      "roads": 6262,
      "__": 6263,
      "nt": 6264,
      "pg": 6265,
      "vermont": 6266,
      "update": 6267,
      "math": 6268,
      "context": 6269,
      "prosecution": 6270,
      "hire": 6271,
      "stations": 6272,
      "disappointed": 6273,
      "compar": 6274,
      "calm": 6275,
      "hamas": 6276,
      "staffers": 6277,
      "incredibly": 6278,
      "41": 6279,
      "thug": 6280,
      "tos": 6281,
      "harsh": 6282,
      "planes": 6283,
      "utter": 6284,
      "dissent": 6285,
      "solve": 6286,
      "lifted": 6287,
      "answers": 6288,
      "eligible": 6289,
      "53": 6290,
      "tie": 6291,
      "remark": 6292,
      "unemployment": 6293,
      "150": 6294,
      "describing": 6295,
      "expects": 6296,
      "ronald": 6297,
      "transportation": 6298,
      "otic": 6299,
      "opol": 6300,
      "optim": 6301,
      "graft": 6302,
      "everywhere": 6303,
      "causes": 6304,
      "castro": 6305,
      "encouraged": 6306,
      "canceled": 6307,
      "minnesota": 6308,
      "tpp": 6309,
      "mann": 6310,
      "curb": 6311,
      "hole": 6312,
      "advanced": 6313,
      "returning": 6314,
      "triggered": 6315,
      "dur": 6316,
      "tox": 6317,
      "beck": 6318,
      "adults": 6319,
      "provoc": 6320,
      "misconduct": 6321,
      "explains": 6322,
      "flags": 6323,
      "delegation": 6324,
      "exclusive": 6325,
      "begins": 6326,
      "wages": 6327,
      "earned": 6328,
      "perry": 6329,
      "italian": 6330,
      "extended": 6331,
      "estimates": 6332,
      "entitled": 6333,
      "ipp": 6334,
      "parent": 6335,
      "wo": 6336,
      "afd": 6337,
      "caller": 6338,
      "miso": 6339,
      "horrific": 6340,
      "hopefully": 6341,
      "substantial": 6342,
      "cens": 6343,
      "sein": 6344,
      "abu": 6345,
      "actively": 6346,
      "cool": 6347,
      "2003": 6348,
      "bac": 6349,
      "cant": 6350,
      "treason": 6351,
      "lift": 6352,
      "disman": 6353,
      "cree": 6354,
      "acle": 6355,
      "feet": 6356,
      "heading": 6357,
      "revolutionary": 6358,
      "250": 6359,
      "arc": 6360,
      "thats": 6361,
      "donor": 6362,
      "disclosed": 6363,
      "astic": 6364,
      "busy": 6365,
      "planet": 6366,
      "arguments": 6367,
      "persu": 6368,
      "introdu": 6369,
      "elder": 6370,
      "xon": 6371,
      "aded": 6372,
      "commo": 6373,
      "continent": 6374,
      "juan": 6375,
      "pena": 6376,
      "soldier": 6377,
      "egyptian": 6378,
      "kick": 6379,
      "pill": 6380,
      "maher": 6381,
      "houston": 6382,
      "addressing": 6383,
      "assessment": 6384,
      "defeated": 6385,
      "bian": 6386,
      "fash": 6387,
      "grew": 6388,
      "jar": 6389,
      "mosul": 6390,
      "shield": 6391,
      "bought": 6392,
      "dun": 6393,
      "theless": 6394,
      "icles": 6395,
      "confron": 6396,
      "soviet": 6397,
      "upcoming": 6398,
      "rodr": 6399,
      "contrad": 6400,
      "humanity": 6401,
      "anium": 6402,
      "multi": 6403,
      "register": 6404,
      "dominated": 6405,
      "emmanuel": 6406,
      "servers": 6407,
      "accuse": 6408,
      "primaries": 6409,
      "announcing": 6410,
      "roberts": 6411,
      "abedin": 6412,
      "opportunities": 6413,
      "66": 6414,
      "launder": 6415,
      "ucci": 6416,
      "towns": 6417,
      "silent": 6418,
      "aus": 6419,
      "mogul": 6420,
      "abuses": 6421,
      "bru": 6422,
      "sons": 6423,
      "glass": 6424,
      "employed": 6425,
      "copy": 6426,
      "items": 6427,
      "unacceptable": 6428,
      "uranium": 6429,
      "praise": 6430,
      "dign": 6431,
      "wolf": 6432,
      "unions": 6433,
      "sav": 6434,
      "visits": 6435,
      "barred": 6436,
      "communication": 6437,
      "insurgency": 6438,
      "losses": 6439,
      "hm": 6440,
      "zo": 6441,
      "pros": 6442,
      "corps": 6443,
      "refusal": 6444,
      "tennes": 6445,
      "follows": 6446,
      "surprising": 6447,
      "ets": 6448,
      "user": 6449,
      "weather": 6450,
      "ansing": 6451,
      "echo": 6452,
      "singapo": 6453,
      "properly": 6454,
      "reveal": 6455,
      "consistent": 6456,
      "grassley": 6457,
      "singapore": 6458,
      "fab": 6459,
      "reverse": 6460,
      "boat": 6461,
      "empty": 6462,
      "slammed": 6463,
      "tesville": 6464,
      "charlottesville": 6465,
      "eat": 6466,
      "ils": 6467,
      "click": 6468,
      "attending": 6469,
      "proves": 6470,
      "patients": 6471,
      "starts": 6472,
      "amounts": 6473,
      "nasty": 6474,
      "ares": 6475,
      "hay": 6476,
      "trem": 6477,
      "doors": 6478,
      "healthy": 6479,
      "spokesperson": 6480,
      "crossing": 6481,
      "brilliant": 6482,
      "fashion": 6483,
      "coc": 6484,
      "hid": 6485,
      "jet": 6486,
      "rw": 6487,
      "aly": 6488,
      "aya": 6489,
      "respected": 6490,
      "apology": 6491,
      "manhatt": 6492,
      "grave": 6493,
      "hedge": 6494,
      "zor": 6495,
      "thail": 6496,
      "fest": 6497,
      "brave": 6498,
      "extent": 6499,
      "decline": 6500,
      "fierce": 6501,
      "rodrig": 6502,
      "manhattan": 6503,
      "inary": 6504,
      "rets": 6505,
      "depl": 6506,
      "pair": 6507,
      "buzz": 6508,
      "helps": 6509,
      "subsequ": 6510,
      "rub": 6511,
      "machine": 6512,
      "gaza": 6513,
      "anderson": 6514,
      "shore": 6515,
      "divide": 6516,
      "suddenly": 6517,
      "bitter": 6518,
      "kee": 6519,
      "reads": 6520,
      "criticizing": 6521,
      "location": 6522,
      "bizarre": 6523,
      "omin": 6524,
      "explan": 6525,
      "evange": 6526,
      "encer": 6527,
      "locked": 6528,
      "recorded": 6529,
      "speculation": 6530,
      "competition": 6531,
      "fant": 6532,
      "oding": 6533,
      "adjust": 6534,
      "violating": 6535,
      "focusing": 6536,
      "vana": 6537,
      "reviewed": 6538,
      "injuries": 6539,
      "dirty": 6540,
      "tennessee": 6541,
      "thailand": 6542,
      "57": 6543,
      "pages": 6544,
      "ceas": 6545,
      "peters": 6546,
      "articles": 6547,
      "extensive": 6548,
      "rolling": 6549,
      "tapper": 6550,
      "accomplish": 6551,
      "glo": 6552,
      "escape": 6553,
      "embar": 6554,
      "membership": 6555,
      "shocked": 6556,
      "lindsey": 6557,
      "54": 6558,
      "vs": 6559,
      "ala": 6560,
      "allied": 6561,
      "fees": 6562,
      "dub": 6563,
      "signal": 6564,
      "portray": 6565,
      "sunni": 6566,
      "cuomo": 6567,
      "tweeting": 6568,
      "recording": 6569,
      "negotiated": 6570,
      "voices": 6571,
      "mateen": 6572,
      "intellect": 6573,
      "ceasef": 6574,
      "rebu": 6575,
      "sets": 6576,
      "blas": 6577,
      "loan": 6578,
      "aims": 6579,
      "challenging": 6580,
      "reduced": 6581,
      "experienced": 6582,
      "boiler": 6583,
      "gs": 6584,
      "traged": 6585,
      "sens": 6586,
      "cohn": 6587,
      "longtime": 6588,
      "refuses": 6589,
      "prepare": 6590,
      "manufactur": 6591,
      "games": 6592,
      "boeing": 6593,
      "withdrawal": 6594,
      "von": 6595,
      "inct": 6596,
      "height": 6597,
      "havana": 6598,
      "emir": 6599,
      "disabled": 6600,
      "violate": 6601,
      "protester": 6602,
      "devos": 6603,
      "snap": 6604,
      "expanding": 6605,
      "alexander": 6606,
      "blasted": 6607,
      "reince": 6608,
      "beating": 6609,
      "shed": 6610,
      "considers": 6611,
      "signing": 6612,
      "concerning": 6613,
      "racists": 6614,
      "industries": 6615,
      "fires": 6616,
      "kab": 6617,
      "lore": 6618,
      "mile": 6619,
      "vat": 6620,
      "apper": 6621,
      "grants": 6622,
      "massacre": 6623,
      "catch": 6624,
      "writes": 6625,
      "shutdown": 6626,
      "inspired": 6627,
      "58": 6628,
      "hiring": 6629,
      "uct": 6630,
      "older": 6631,
      "brings": 6632,
      "disclose": 6633,
      "northeast": 6634,
      "phr": 6635,
      "pressing": 6636,
      "morrow": 6637,
      "aught": 6638,
      "motion": 6639,
      "scientific": 6640,
      "fundraising": 6641,
      "motivated": 6642,
      "sters": 6643,
      "crooked": 6644,
      "earnest": 6645,
      "compliance": 6646,
      "harvard": 6647,
      "insurg": 6648,
      "kis": 6649,
      "pts": 6650,
      "ramp": 6651,
      "aco": 6652,
      "lawful": 6653,
      "regions": 6654,
      "borough": 6655,
      "ancing": 6656,
      "greece": 6657,
      "memorial": 6658,
      "fp": 6659,
      "mock": 6660,
      "schiff": 6661,
      "influential": 6662,
      "graph": 6663,
      "700": 6664,
      "dhs": 6665,
      "sir": 6666,
      "uten": 6667,
      "disclosure": 6668,
      "bai": 6669,
      "somo": 6670,
      "sovereignty": 6671,
      "jen": 6672,
      "mall": 6673,
      "rab": 6674,
      "apol": 6675,
      "listening": 6676,
      "hammer": 6677,
      "falling": 6678,
      "papers": 6679,
      "spencer": 6680,
      "nationals": 6681,
      "proportion": 6682,
      "2004": 6683,
      "doub": 6684,
      "flake": 6685,
      "stolen": 6686,
      "heritage": 6687,
      "ceasefire": 6688,
      "iation": 6689,
      "opher": 6690,
      "missions": 6691,
      "drawing": 6692,
      "destroying": 6693,
      "ai": 6694,
      "enthus": 6695,
      "blat": 6696,
      "counted": 6697,
      "flash": 6698,
      "riel": 6699,
      "solutions": 6700,
      "damaging": 6701,
      "technical": 6702,
      "libyan": 6703,
      "fighter": 6704,
      "delayed": 6705,
      "bunch": 6706,
      "cable": 6707,
      "igation": 6708,
      "governors": 6709,
      "angered": 6710,
      "unders": 6711,
      "damas": 6712,
      "extremists": 6713,
      "license": 6714,
      "1990s": 6715,
      "imprison": 6716,
      "holy": 6717,
      "favorable": 6718,
      "damascus": 6719,
      "pical": 6720,
      "prol": 6721,
      "colbert": 6722,
      "employers": 6723,
      "shape": 6724,
      "moments": 6725,
      "hospitals": 6726,
      "monitoring": 6727,
      "deplor": 6728,
      "chel": 6729,
      "instru": 6730,
      "laure": 6731,
      "ourselves": 6732,
      "grif": 6733,
      "caution": 6734,
      "burning": 6735,
      "describe": 6736,
      "guardian": 6737,
      "scandals": 6738,
      "route": 6739,
      "somodev": 6740,
      "rud": 6741,
      "staf": 6742,
      "alaska": 6743,
      "dear": 6744,
      "tery": 6745,
      "liberties": 6746,
      "thoughts": 6747,
      "schedule": 6748,
      "somodevilla": 6749,
      "69": 6750,
      ";&": 6751,
      "bast": 6752,
      "crown": 6753,
      "donated": 6754,
      "uding": 6755,
      "2017the": 6756,
      "player": 6757,
      "divorce": 6758,
      "oath": 6759,
      "tired": 6760,
      "stan": 6761,
      "manila": 6762,
      "dodd": 6763,
      "quote": 6764,
      "riers": 6765,
      "popularity": 6766,
      "insurgents": 6767,
      "rit": 6768,
      "tary": 6769,
      "wong": 6770,
      "amb": 6771,
      "abs": 6772,
      "agric": 6773,
      "plants": 6774,
      "uster": 6775,
      "forecast": 6776,
      "draf": 6777,
      "investor": 6778,
      "jets": 6779,
      "harris": 6780,
      "reviewing": 6781,
      "munic": 6782,
      "consensus": 6783,
      "agriculture": 6784,
      "stating": 6785,
      "tomorrow": 6786,
      "agu": 6787,
      "aked": 6788,
      "contained": 6789,
      "completed": 6790,
      "surviv": 6791,
      "denounced": 6792,
      "municipal": 6793,
      "lord": 6794,
      "tiny": 6795,
      "wn": 6796,
      "entities": 6797,
      "shirt": 6798,
      "minds": 6799,
      "columb": 6800,
      "arency": 6801,
      "nominate": 6802,
      "transparency": 6803,
      "implemented": 6804,
      "venezuel": 6805,
      "opposes": 6806,
      "occupied": 6807,
      "gabriel": 6808,
      "56": 6809,
      "ario": 6810,
      "fet": 6811,
      "protesting": 6812,
      "younger": 6813,
      "bombs": 6814,
      "falls": 6815,
      "productive": 6816,
      "supposedly": 6817,
      "devastating": 6818,
      "colombia": 6819,
      "ride": 6820,
      "incoming": 6821,
      "bean": 6822,
      "prize": 6823,
      "elabor": 6824,
      "permission": 6825,
      "adds": 6826,
      "releasing": 6827,
      "babies": 6828,
      "window": 6829,
      "prompting": 6830,
      "convinced": 6831,
      "nix": 6832,
      "edge": 6833,
      "exchanges": 6834,
      "consent": 6835,
      "appearing": 6836,
      "rupted": 6837,
      "privately": 6838,
      "cleansing": 6839,
      "lieuten": 6840,
      "materials": 6841,
      "cooperate": 6842,
      "anticip": 6843,
      "recip": 6844,
      "outrageous": 6845,
      "indictment": 6846,
      "relatively": 6847,
      "premiums": 6848,
      "swift": 6849,
      "pleaded": 6850,
      "lt": 6851,
      "denying": 6852,
      "patter": 6853,
      "devices": 6854,
      "pakistani": 6855,
      "producer": 6856,
      "restaurant": 6857,
      "awi": 6858,
      "icing": 6859,
      "haha": 6860,
      "airports": 6861,
      "valu": 6862,
      "financing": 6863,
      "shake": 6864,
      "voiced": 6865,
      "ikh": 6866,
      "credible": 6867,
      "struggled": 6868,
      "rocket": 6869,
      "merely": 6870,
      "fate": 6871,
      "annex": 6872,
      "disagree": 6873,
      "pardon": 6874,
      "tenure": 6875,
      "walker": 6876,
      "accepting": 6877,
      "koch": 6878,
      "sponsored": 6879,
      "fu": 6880,
      "rely": 6881,
      "ulty": 6882,
      "scared": 6883,
      "epic": 6884,
      "bigoted": 6885,
      "wallace": 6886,
      "hatch": 6887,
      "naval": 6888,
      "stoc": 6889,
      "heed": 6890,
      "prem": 6891,
      "ilege": 6892,
      "connections": 6893,
      "flying": 6894,
      "overwhelmingly": 6895,
      "ranging": 6896,
      "sergei": 6897,
      "cz": 6898,
      "huck": 6899,
      "lunch": 6900,
      "yr": 6901,
      "ption": 6902,
      "factor": 6903,
      "mcca": 6904,
      "privilege": 6905,
      "successor": 6906,
      "electronic": 6907,
      "column": 6908,
      "seattle": 6909,
      "fran": 6910,
      "owns": 6911,
      "collection": 6912,
      "plea": 6913,
      "villages": 6914,
      "kkk": 6915,
      "error": 6916,
      "stunning": 6917,
      "prosper": 6918,
      "dick": 6919,
      "unanim": 6920,
      "pel": 6921,
      "bless": 6922,
      "learning": 6923,
      "phones": 6924,
      "christopher": 6925,
      "palm": 6926,
      "worthy": 6927,
      "recovery": 6928,
      "trend": 6929,
      "ike": 6930,
      "nich": 6931,
      "odo": 6932,
      "phy": 6933,
      "relatives": 6934,
      "viral": 6935,
      "staying": 6936,
      "perspect": 6937,
      "contests": 6938,
      "implementation": 6939,
      "tremend": 6940,
      "hond": 6941,
      "manage": 6942,
      "factbox": 6943,
      "slide": 6944,
      "kidn": 6945,
      "predicted": 6946,
      "anonymous": 6947,
      "ignoring": 6948,
      "reducing": 6949,
      "advertising": 6950,
      "sdf": 6951,
      "sie": 6952,
      "stad": 6953,
      "stuck": 6954,
      "disgrace": 6955,
      "typical": 6956,
      "letters": 6957,
      "disci": 6958,
      "traveled": 6959,
      "confederate": 6960,
      "eager": 6961,
      "luck": 6962,
      "ifies": 6963,
      "antifa": 6964,
      "divisions": 6965,
      "scaram": 6966,
      "penalty": 6967,
      "fere": 6968,
      "interven": 6969,
      "missed": 6970,
      "lots": 6971,
      "reveals": 6972,
      "ukrainian": 6973,
      "hypocrisy": 6974,
      "athe": 6975,
      "dit": 6976,
      "twi": 6977,
      "alep": 6978,
      "lev": 6979,
      "abbas": 6980,
      "interfere": 6981,
      "provo": 6982,
      "firearms": 6983,
      "momentum": 6984,
      "kicked": 6985,
      "baldwin": 6986,
      "laundering": 6987,
      "lieutenant": 6988,
      "scaramucci": 6989,
      "bible": 6990,
      "cos": 6991,
      "mone": 6992,
      "nan": 6993,
      "trun": 6994,
      "raw": 6995,
      "investigative": 6996,
      "factory": 6997,
      "handful": 6998,
      "possess": 6999,
      "races": 7000,
      "damaged": 7001,
      "abee": 7002,
      "conducting": 7003,
      "principle": 7004,
      "oon": 7005,
      "reconc": 7006,
      "orm": 7007,
      "icon": 7008,
      "heat": 7009,
      "jection": 7010,
      "witch": 7011,
      "clients": 7012,
      "farmers": 7013,
      "confrontation": 7014,
      "sustain": 7015,
      "casualties": 7016,
      "toxic": 7017,
      "pour": 7018,
      "orange": 7019,
      "preserve": 7020,
      "aking": 7021,
      "bra": 7022,
      "funeral": 7023,
      "engers": 7024,
      "sexist": 7025,
      "pulling": 7026,
      "rolled": 7027,
      "barely": 7028,
      "aleppo": 7029,
      "thi": 7030,
      "acce": 7031,
      "opoulos": 7032,
      "absur": 7033,
      "bright": 7034,
      "campaigned": 7035,
      "aven": 7036,
      "lowest": 7037,
      "definition": 7038,
      "hua": 7039,
      "combined": 7040,
      "sharply": 7041,
      "guidance": 7042,
      "sponsor": 7043,
      "absurd": 7044,
      "bbc": 7045,
      "isation": 7046,
      "irts": 7047,
      "agrees": 7048,
      "cler": 7049,
      "worldwide": 7050,
      "loses": 7051,
      "apologized": 7052,
      "stressed": 7053,
      "columbia": 7054,
      "pup": 7055,
      "finished": 7056,
      "thorough": 7057,
      "accountability": 7058,
      "carlson": 7059,
      "stab": 7060,
      "stamp": 7061,
      "oft": 7062,
      "resulted": 7063,
      "ideology": 7064,
      "ards": 7065,
      "boom": 7066,
      "retain": 7067,
      "weekly": 7068,
      "destabil": 7069,
      "celebrate": 7070,
      "significantly": 7071,
      "arkansas": 7072,
      "jimmy": 7073,
      "dim": 7074,
      "scam": 7075,
      "wang": 7076,
      "arbit": 7077,
      "lever": 7078,
      "seth": 7079,
      "imper": 7080,
      "cles": 7081,
      "medium": 7082,
      "fergus": 7083,
      "reluct": 7084,
      "bars": 7085,
      "gles": 7086,
      "mccar": 7087,
      "hitting": 7088,
      "separately": 7089,
      "requirement": 7090,
      "renewed": 7091,
      "virtually": 7092,
      "cot": 7093,
      "enacted": 7094,
      "apt": 7095,
      "counties": 7096,
      "rent": 7097,
      "posting": 7098,
      "denial": 7099,
      "judgment": 7100,
      "popu": 7101,
      "mountain": 7102,
      "collapsed": 7103,
      "mobile": 7104,
      "psych": 7105,
      "deemed": 7106,
      "huckabee": 7107,
      "eg": 7108,
      "oly": 7109,
      "vp": 7110,
      "atures": 7111,
      "clapper": 7112,
      "assume": 7113,
      "prev": 7114,
      "ranks": 7115,
      "counterpart": 7116,
      "mexicans": 7117,
      "hotels": 7118,
      "trafficking": 7119,
      "n1": 7120,
      "proto": 7121,
      "headlines": 7122,
      "crude": 7123,
      "unique": 7124,
      "explicit": 7125,
      "swamp": 7126,
      "cards": 7127,
      "unveiled": 7128,
      "normally": 7129,
      "explanation": 7130,
      "sting": 7131,
      "chaffe": 7132,
      "unknown": 7133,
      "intens": 7134,
      "perce": 7135,
      "biased": 7136,
      "resolved": 7137,
      "invasion": 7138,
      "tragedy": 7139,
      "63": 7140,
      "hij": 7141,
      "ng": 7142,
      "theat": 7143,
      "aces": 7144,
      "mechan": 7145,
      "secession": 7146,
      "governing": 7147,
      "anged": 7148,
      "feelings": 7149,
      "educated": 7150,
      "relationships": 7151,
      "frankly": 7152,
      "bonds": 7153,
      "cairo": 7154,
      "reiterated": 7155,
      "chaffetz": 7156,
      "59": 7157,
      "omar": 7158,
      "admir": 7159,
      "exxon": 7160,
      "silver": 7161,
      "acknowledge": 7162,
      "exercises": 7163,
      "escalation": 7164,
      "switch": 7165,
      "medicare": 7166,
      "ferguson": 7167,
      "orious": 7168,
      "brie": 7169,
      "syn": 7170,
      "naturally": 7171,
      "incredible": 7172,
      "tayy": 7173,
      "reckless": 7174,
      "discipl": 7175,
      "bish": 7176,
      "hiding": 7177,
      "tsa": 7178,
      "incompet": 7179,
      "deeper": 7180,
      "conyers": 7181,
      "neil": 7182,
      "contacted": 7183,
      "passion": 7184,
      "regulators": 7185,
      "preventing": 7186,
      "trained": 7187,
      "gaining": 7188,
      "existence": 7189,
      "amazon": 7190,
      "bahrain": 7191,
      "kil": 7192,
      "lago": 7193,
      "rome": 7194,
      "org": 7195,
      "edia": 7196,
      "operate": 7197,
      "sixth": 7198,
      "condemn": 7199,
      "punishment": 7200,
      "hates": 7201,
      "hens": 7202,
      "ird": 7203,
      "mainland": 7204,
      "wells": 7205,
      "testing": 7206,
      "testified": 7207,
      "crimea": 7208,
      "bolster": 7209,
      "accusation": 7210,
      "broadcaster": 7211,
      "mccarthy": 7212,
      "ware": 7213,
      "atically": 7214,
      "whist": 7215,
      "concess": 7216,
      "weiner": 7217,
      "rajoy": 7218,
      "fulfill": 7219,
      "ultz": 7220,
      "applied": 7221,
      "benjam": 7222,
      "rooms": 7223,
      "explaining": 7224,
      "contributed": 7225,
      "maximum": 7226,
      "satisf": 7227,
      "abortions": 7228,
      "nail": 7229,
      "broo": 7230,
      "eval": 7231,
      "raises": 7232,
      "cleared": 7233,
      "austria": 7234,
      "stayed": 7235,
      "application": 7236,
      "cancel": 7237,
      "nixon": 7238,
      "briefed": 7239,
      "benjamin": 7240,
      "dies": 7241,
      "nl": 7242,
      "refin": 7243,
      "chin": 7244,
      "excess": 7245,
      "timing": 7246,
      "crete": 7247,
      "advised": 7248,
      "televised": 7249,
      "dropping": 7250,
      "disputes": 7251,
      "procedures": 7252,
      "assassination": 7253,
      "dramatic": 7254,
      ".\"": 7255,
      "fence": 7256,
      "ita": 7257,
      "labe": 7258,
      "intense": 7259,
      "bully": 7260,
      "hussein": 7261,
      "willingness": 7262,
      "insults": 7263,
      "aggression": 7264,
      "legitim": 7265,
      "mocked": 7266,
      "abadi": 7267,
      "len": 7268,
      "adult": 7269,
      "unfit": 7270,
      "concrete": 7271,
      "displaced": 7272,
      "issipp": 7273,
      "criticize": 7274,
      "walls": 7275,
      "dishone": 7276,
      "slavery": 7277,
      "nur": 7278,
      "coinc": 7279,
      "icted": 7280,
      "mississipp": 7281,
      "walsh": 7282,
      "favored": 7283,
      "invitation": 7284,
      "recognition": 7285,
      "suspicious": 7286,
      "subpoena": 7287,
      "flip": 7288,
      "ti": 7289,
      "anx": 7290,
      "pride": 7291,
      "frag": 7292,
      "udes": 7293,
      "upper": 7294,
      "cores": 7295,
      "adequ": 7296,
      "barn": 7297,
      "discred": 7298,
      "scenario": 7299,
      "answered": 7300,
      "fjs": 7301,
      "uber": 7302,
      "enorm": 7303,
      "deir": 7304,
      "ife": 7305,
      "jections": 7306,
      "passengers": 7307,
      "portion": 7308,
      "repeat": 7309,
      "responses": 7310,
      "salv": 7311,
      "matthew": 7312,
      "vatican": 7313,
      "aires": 7314,
      "fred": 7315,
      "zones": 7316,
      "urges": 7317,
      "clim": 7318,
      "eline": 7319,
      "earning": 7320,
      "disastr": 7321,
      "evol": 7322,
      "secured": 7323,
      "spur": 7324,
      "foreigners": 7325,
      "transform": 7326,
      "valley": 7327,
      "equity": 7328,
      "encouraging": 7329,
      "philippine": 7330,
      "insult": 7331,
      "vacation": 7332,
      "stocks": 7333,
      "populist": 7334,
      "dates": 7335,
      "iated": 7336,
      "rin": 7337,
      "xen": 7338,
      "arming": 7339,
      "andowski": 7340,
      "trick": 7341,
      "careful": 7342,
      "declaring": 7343,
      "credits": 7344,
      "anchor": 7345,
      "extremism": 7346,
      "antonin": 7347,
      "tayyip": 7348,
      "72": 7349,
      "ein": 7350,
      "fish": 7351,
      "nis": 7352,
      "retr": 7353,
      "crip": 7354,
      "closest": 7355,
      "sulli": 7356,
      "remote": 7357,
      "crowds": 7358,
      "client": 7359,
      "lifting": 7360,
      "***": 7361,
      "comedian": 7362,
      "apartment": 7363,
      "procedure": 7364,
      "evacu": 7365,
      "swe": 7366,
      "tta": 7367,
      "unrest": 7368,
      "mosqu": 7369,
      "lax": 7370,
      "schol": 7371,
      "sentiment": 7372,
      "travelers": 7373,
      "juncker": 7374,
      "mississippi": 7375,
      "removing": 7376,
      "enix": 7377,
      "ceiling": 7378,
      "crash": 7379,
      "types": 7380,
      "carrier": 7381,
      "circul": 7382,
      "loyalty": 7383,
      "rust": 7384,
      "sme": 7385,
      "ula": 7386,
      "noticed": 7387,
      "compound": 7388,
      "securities": 7389,
      "committing": 7390,
      "stopping": 7391,
      "didnt": 7392,
      "awful": 7393,
      "sullivan": 7394,
      "oce": 7395,
      "concent": 7396,
      "saved": 7397,
      "usions": 7398,
      "neck": 7399,
      "orted": 7400,
      "schultz": 7401,
      "2002": 7402,
      "nonsense": 7403,
      "turnbull": 7404,
      "traditionally": 7405,
      "wildlife": 7406,
      "consistently": 7407,
      "antonio": 7408,
      "emotional": 7409,
      "autonomous": 7410,
      "):": 7411,
      "gow": 7412,
      "hani": 7413,
      "device": 7414,
      "iev": 7415,
      "pton": 7416,
      "compens": 7417,
      "bench": 7418,
      "altern": 7419,
      "scarborough": 7420,
      "drilling": 7421,
      "verdict": 7422,
      "coul": 7423,
      "apers": 7424,
      "mans": 7425,
      "boast": 7426,
      "roger": 7427,
      "angag": 7428,
      "universities": 7429,
      "phoenix": 7430,
      "delegate": 7431,
      "hungary": 7432,
      "mnangag": 7433,
      "dreamers": 7434,
      "editing": 7435,
      "toll": 7436,
      "bery": 7437,
      "cancell": 7438,
      "interpret": 7439,
      "commitments": 7440,
      "diverse": 7441,
      "dying": 7442,
      "outright": 7443,
      "lewandowski": 7444,
      "soft": 7445,
      "mnangagwa": 7446,
      "bour": 7447,
      "ousted": 7448,
      "actress": 7449,
      "spreading": 7450,
      "proceedings": 7451,
      "disastrous": 7452,
      "flew": 7453,
      "kal": 7454,
      "zin": 7455,
      "atom": 7456,
      "alert": 7457,
      "defer": 7458,
      "unite": 7459,
      "hassan": 7460,
      "salman": 7461,
      "vaney": 7462,
      "mulvaney": 7463,
      "bankruptcy": 7464,
      "elderly": 7465,
      "esome": 7466,
      "convent": 7467,
      "dod": 7468,
      "drinking": 7469,
      "furious": 7470,
      "favors": 7471,
      "assaulted": 7472,
      "index": 7473,
      "jacob": 7474,
      "finger": 7475,
      "dat": 7476,
      "gue": 7477,
      "pig": 7478,
      "resume": 7479,
      "expose": 7480,
      "intend": 7481,
      "nski": 7482,
      "associate": 7483,
      "ignorant": 7484,
      "tackle": 7485,
      "inspector": 7486,
      "perspective": 7487,
      "tremendous": 7488,
      "hondur": 7489,
      "coulter": 7490,
      "neur": 7491,
      "justify": 7492,
      "houthis": 7493,
      "understood": 7494,
      "feature": 7495,
      "plaint": 7496,
      "complicated": 7497,
      "revenues": 7498,
      "animals": 7499,
      "buddhist": 7500,
      "dignity": 7501,
      "monetary": 7502,
      "bott": 7503,
      "wider": 7504,
      "resettlement": 7505,
      "asset": 7506,
      "gray": 7507,
      "effic": 7508,
      "publication": 7509,
      "mcmaster": 7510,
      "burned": 7511,
      "ranch": 7512,
      "corporation": 7513,
      "garner": 7514,
      "participants": 7515,
      "contractors": 7516,
      "retaliation": 7517,
      "staffer": 7518,
      "62": 7519,
      "andre": 7520,
      "modi": 7521,
      "petro": 7522,
      "contrary": 7523,
      "genoc": 7524,
      "choices": 7525,
      "historical": 7526,
      "prayer": 7527,
      "gmt": 7528,
      "sisi": 7529,
      "ml": 7530,
      "pere": 7531,
      "agger": 7532,
      "plenty": 7533,
      "surrender": 7534,
      "engagement": 7535,
      "brok": 7536,
      "cares": 7537,
      "doesnt": 7538,
      "chambers": 7539,
      "zynski": 7540,
      "framework": 7541,
      "mates": 7542,
      "pom": 7543,
      "piv": 7544,
      "yah": 7545,
      "encounter": 7546,
      "donate": 7547,
      "izer": 7548,
      "sheikh": 7549,
      "scre": 7550,
      "compass": 7551,
      "icting": 7552,
      "ailes": 7553,
      "ologies": 7554,
      "conviction": 7555,
      "brotherhood": 7556,
      "fold": 7557,
      "oth": 7558,
      "piss": 7559,
      "rip": 7560,
      "enger": 7561,
      "units": 7562,
      "offended": 7563,
      "bri": 7564,
      "brady": 7565,
      "desert": 7566,
      "sentences": 7567,
      "suggestion": 7568,
      "golden": 7569,
      "necessarily": 7570,
      "iveness": 7571,
      "frustrated": 7572,
      "vetting": 7573,
      "globe": 7574,
      "hem": 7575,
      "prob": 7576,
      "scope": 7577,
      "gery": 7578,
      "hoax": 7579,
      "briefly": 7580,
      "laughter": 7581,
      "tourism": 7582,
      "sympath": 7583,
      "entertainment": 7584,
      "vocal": 7585,
      "mccabe": 7586,
      "64": 7587,
      "shin": 7588,
      "grav": 7589,
      "intends": 7590,
      "offense": 7591,
      "scal": 7592,
      "possession": 7593,
      "fairly": 7594,
      "describes": 7595,
      "researchers": 7596,
      "sharia": 7597,
      "survive": 7598,
      "reminded": 7599,
      "immunity": 7600,
      "ophobic": 7601,
      "deleted": 7602,
      "slightly": 7603,
      "chelsea": 7604,
      "99": 7605,
      "bother": 7606,
      "spill": 7607,
      "inequality": 7608,
      "insider": 7609,
      "stead": 7610,
      "headline": 7611,
      "repealing": 7612,
      "applause": 7613,
      "laughing": 7614,
      "insulting": 7615,
      "jumped": 7616,
      "recession": 7617,
      "juris": 7618,
      "78": 7619,
      "sadd": 7620,
      "info": 7621,
      "rebuild": 7622,
      "atta": 7623,
      "alarm": 7624,
      "lake": 7625,
      "estimate": 7626,
      "aftermath": 7627,
      "indicate": 7628,
      "obamas": 7629,
      "annivers": 7630,
      "parade": 7631,
      "desperately": 7632,
      "idiot": 7633,
      "atlanta": 7634,
      "mutual": 7635,
      "sacrif": 7636,
      "athing": 7637,
      "gates": 7638,
      "kha": 7639,
      "illust": 7640,
      "peru": 7641,
      "houthi": 7642,
      "finish": 7643,
      "loom": 7644,
      "lessly": 7645,
      "distance": 7646,
      "approx": 7647,
      "inflation": 7648,
      "felony": 7649,
      "duties": 7650,
      "frequent": 7651,
      "fli": 7652,
      "gins": 7653,
      "arity": 7654,
      "soil": 7655,
      "gunman": 7656,
      "frontrun": 7657,
      "finds": 7658,
      "seemingly": 7659,
      "imately": 7660,
      "murphy": 7661,
      "kinds": 7662,
      "celebrity": 7663,
      "bullshit": 7664,
      "extraordinary": 7665,
      "drove": 7666,
      "rosenstein": 7667,
      "manufacturers": 7668,
      "ais": 7669,
      "fcc": 7670,
      "unexpected": 7671,
      "uls": 7672,
      "obst": 7673,
      "grid": 7674,
      "retweet": 7675,
      "muse": 7676,
      "operatives": 7677,
      "awesome": 7678,
      "variety": 7679,
      "melt": 7680,
      "competitive": 7681,
      "bureaucr": 7682,
      "philos": 7683,
      "))": 7684,
      "nr": 7685,
      "accompan": 7686,
      "verified": 7687,
      "consu": 7688,
      "leges": 7689,
      "lled": 7690,
      "drone": 7691,
      "accuses": 7692,
      "primarily": 7693,
      "awk": 7694,
      "prevented": 7695,
      "submitted": 7696,
      "httpww": 7697,
      "narc": 7698,
      "consc": 7699,
      "lau": 7700,
      "osex": 7701,
      "root": 7702,
      "warns": 7703,
      "consol": 7704,
      "fails": 7705,
      "powell": 7706,
      "wonderful": 7707,
      "lobbyists": 7708,
      "maintaining": 7709,
      "occupation": 7710,
      "umption": 7711,
      "guidelines": 7712,
      "deduction": 7713,
      "buzzfeed": 7714,
      "avi": 7715,
      "yield": 7716,
      "aba": 7717,
      "lib": 7718,
      "indication": 7719,
      "rett": 7720,
      "providers": 7721,
      "standoff": 7722,
      "advisory": 7723,
      "istanbul": 7724,
      "daughters": 7725,
      "examples": 7726,
      "besides": 7727,
      "fundraiser": 7728,
      "cameras": 7729,
      "rifle": 7730,
      "fascist": 7731,
      "length": 7732,
      "aspects": 7733,
      "anniversary": 7734,
      "cking": 7735,
      "patt": 7736,
      "unle": 7737,
      "fright": 7738,
      "repair": 7739,
      "auf": 7740,
      "backers": 7741,
      "winf": 7742,
      "extension": 7743,
      "odinga": 7744,
      "accompanied": 7745,
      "gers": 7746,
      "staged": 7747,
      "trucks": 7748,
      "imposing": 7749,
      "igen": 7750,
      "oln": 7751,
      "interpre": 7752,
      "rail": 7753,
      "engaging": 7754,
      "visitors": 7755,
      "regards": 7756,
      "resolutions": 7757,
      "bombshell": 7758,
      "applications": 7759,
      "tracking": 7760,
      "loretta": 7761,
      "doubts": 7762,
      "enormous": 7763,
      "httpwwwinf": 7764,
      "httpwwwinfowars": 7765,
      "85": 7766,
      "hub": 7767,
      "vacc": 7768,
      "sts": 7769,
      "tout": 7770,
      "pling": 7771,
      "eln": 7772,
      "brad": 7773,
      "founding": 7774,
      "volunt": 7775,
      "wheel": 7776,
      "teams": 7777,
      "panics": 7778,
      "queen": 7779,
      "transparent": 7780,
      "sidelines": 7781,
      "fueled": 7782,
      "initiatives": 7783,
      "prospects": 7784,
      "shadow": 7785,
      "120": 7786,
      "ius": 7787,
      "luc": 7788,
      "rot": 7789,
      "outspoken": 7790,
      "strain": 7791,
      "centre": 7792,
      "incumb": 7793,
      "refle": 7794,
      "passes": 7795,
      "advances": 7796,
      "nyc": 7797,
      "belgi": 7798,
      "pleas": 7799,
      "recommendations": 7800,
      "belgium": 7801,
      "dent": 7802,
      "jah": 7803,
      "jona": 7804,
      "tab": 7805,
      "uine": 7806,
      "alp": 7807,
      "inge": 7808,
      "improved": 7809,
      "preser": 7810,
      "publish": 7811,
      "carefully": 7812,
      "killer": 7813,
      "expense": 7814,
      "baseball": 7815,
      "install": 7816,
      "contribute": 7817,
      "explosive": 7818,
      "nigeria": 7819,
      "bernard": 7820,
      "abdullah": 7821,
      "hidden": 7822,
      "gt": 7823,
      "hud": 7824,
      "”,": 7825,
      "amin": 7826,
      "unnamed": 7827,
      "weinstein": 7828,
      "partly": 7829,
      "attach": 7830,
      "attitude": 7831,
      "archy": 7832,
      "ugly": 7833,
      "expression": 7834,
      "participation": 7835,
      "ultimate": 7836,
      "roles": 7837,
      "shelter": 7838,
      "screaming": 7839,
      "embargo": 7840,
      "77": 7841,
      "cav": 7842,
      "gif": 7843,
      "lone": 7844,
      "linc": 7845,
      "zu": 7846,
      "orient": 7847,
      "icut": 7848,
      "agram": 7849,
      "guided": 7850,
      "economist": 7851,
      "chiefs": 7852,
      "micro": 7853,
      "expressing": 7854,
      "suspend": 7855,
      "collective": 7856,
      "academic": 7857,
      "mortgage": 7858,
      "chapter": 7859,
      "commod": 7860,
      "gard": 7861,
      "pure": 7862,
      "recall": 7863,
      "newt": 7864,
      "ques": 7865,
      "mines": 7866,
      "capabilities": 7867,
      "picks": 7868,
      "scrap": 7869,
      "rapists": 7870,
      "equally": 7871,
      "swedish": 7872,
      "jurisdict": 7873,
      "jonathan": 7874,
      "ego": 7875,
      "nrt": 7876,
      "oping": 7877,
      "artist": 7878,
      "ensuring": 7879,
      "maintained": 7880,
      "placement": 7881,
      "blames": 7882,
      "contested": 7883,
      "explosion": 7884,
      "connecticut": 7885,
      "mixed": 7886,
      "revelations": 7887,
      "pundit": 7888,
      "phrase": 7889,
      "approximately": 7890,
      "dumb": 7891,
      "lol": 7892,
      "md": 7893,
      "sant": 7894,
      "theories": 7895,
      "amo": 7896,
      "obligation": 7897,
      "softw": 7898,
      "rouhani": 7899,
      "bent": 7900,
      "fusion": 7901,
      "cro": 7902,
      "ghold": 7903,
      "talent": 7904,
      "opez": 7905,
      "surrog": 7906,
      "arrivals": 7907,
      "purposes": 7908,
      "negotiator": 7909,
      "restrain": 7910,
      "empire": 7911,
      "deported": 7912,
      "ownership": 7913,
      "spotlight": 7914,
      "rescind": 7915,
      "obligations": 7916,
      "pocket": 7917,
      "constantly": 7918,
      "stronghold": 7919,
      "griffin": 7920,
      "pattern": 7921,
      "cook": 7922,
      "unpopular": 7923,
      "congo": 7924,
      "liest": 7925,
      "carib": 7926,
      "departments": 7927,
      "ahmed": 7928,
      "england": 7929,
      "plays": 7930,
      "loose": 7931,
      "demonstrated": 7932,
      "lincoln": 7933,
      "rage": 7934,
      "allah": 7935,
      "ups": 7936,
      "faction": 7937,
      "singer": 7938,
      "murray": 7939,
      "designated": 7940,
      "promoted": 7941,
      "mohammad": 7942,
      "suspicion": 7943,
      "blasio": 7944,
      "venezuelan": 7945,
      "bind": 7946,
      "gil": 7947,
      "gore": 7948,
      "tucker": 7949,
      "yan": 7950,
      "onial": 7951,
      "mode": 7952,
      "label": 7953,
      "nobel": 7954,
      "dedicated": 7955,
      "avoided": 7956,
      "crossed": 7957,
      "mandatory": 7958,
      "discriminatory": 7959,
      "exception": 7960,
      "medicine": 7961,
      "baker": 7962,
      "rapidly": 7963,
      "misogyn": 7964,
      "intellectual": 7965,
      "jake": 7966,
      "kam": 7967,
      "lopez": 7968,
      "sway": 7969,
      "dean": 7970,
      "clock": 7971,
      "readers": 7972,
      "facilit": 7973,
      "freeze": 7974,
      "statistics": 7975,
      "understands": 7976,
      "swiss": 7977,
      "pursuing": 7978,
      "embrace": 7979,
      "metho": 7980,
      "affiliated": 7981,
      "jill": 7982,
      "zar": 7983,
      "orth": 7984,
      "stir": 7985,
      "keith": 7986,
      "hispanics": 7987,
      "charter": 7988,
      "cheap": 7989,
      "tariffs": 7990,
      "raped": 7991,
      "instagram": 7992,
      "greet": 7993,
      "roman": 7994,
      "trusted": 7995,
      "franken": 7996,
      "demonstrators": 7997,
      "performed": 7998,
      "indicted": 7999,
      "smoke": 8000,
      "topics": 8001,
      "strongest": 8002,
      "detainees": 8003,
      "introduce": 8004,
      "holl": 8005,
      "sic": 8006,
      "skills": 8007,
      "asy": 8008,
      "uncomfortable": 8009,
      "secrets": 8010,
      "inski": 8011,
      "wanting": 8012,
      "glenn": 8013,
      "lifetime": 8014,
      "krg": 8015,
      "scotland": 8016,
      "perpetr": 8017,
      "frontrunner": 8018,
      "gift": 8019,
      "hits": 8020,
      "tms": 8021,
      "temer": 8022,
      "liked": 8023,
      "dealings": 8024,
      "economics": 8025,
      "bullying": 8026,
      "thirds": 8027,
      "circle": 8028,
      "defined": 8029,
      "gulen": 8030,
      "somali": 8031,
      "deployment": 8032,
      "peskov": 8033,
      "stores": 8034,
      "abandoned": 8035,
      "ophobia": 8036,
      "whistle": 8037,
      "61": 8038,
      "gory": 8039,
      "pad": 8040,
      "ras": 8041,
      "theme": 8042,
      "stim": 8043,
      "stars": 8044,
      "betray": 8045,
      "improving": 8046,
      "youre": 8047,
      "somewhat": 8048,
      "americ": 8049,
      "sphere": 8050,
      "barbar": 8051,
      "glad": 8052,
      "surely": 8053,
      "defendants": 8054,
      "scenes": 8055,
      "clarify": 8056,
      "guests": 8057,
      "persecution": 8058,
      "cof": 8059,
      "macy": 8060,
      "pens": 8061,
      "intr": 8062,
      "admits": 8063,
      "concept": 8064,
      "allen": 8065,
      "meets": 8066,
      "lawed": 8067,
      "basket": 8068,
      "lona": 8069,
      "properties": 8070,
      "condemnation": 8071,
      "awarded": 8072,
      "checked": 8073,
      "coward": 8074,
      "perez": 8075,
      "awkward": 8076,
      "caribbean": 8077,
      "tmsnrt": 8078,
      "cfp": 8079,
      "gren": 8080,
      "kuc": 8081,
      "osh": 8082,
      "managing": 8083,
      "warner": 8084,
      "genuine": 8085,
      "barce": 8086,
      "huma": 8087,
      "venture": 8088,
      "hardline": 8089,
      "boarding": 8090,
      "rounds": 8091,
      "newspapers": 8092,
      "choosing": 8093,
      "recruit": 8094,
      "mechanism": 8095,
      "madd": 8096,
      "stam": 8097,
      "outlet": 8098,
      "extr": 8099,
      "1970": 8100,
      "emerging": 8101,
      "kenyatta": 8102,
      "julian": 8103,
      "cocaine": 8104,
      "mp": 8105,
      "ouse": 8106,
      "issa": 8107,
      "ache": 8108,
      "quo": 8109,
      "raham": 8110,
      "liberation": 8111,
      "generations": 8112,
      "titled": 8113,
      "honestly": 8114,
      "software": 8115,
      "barcelona": 8116,
      "fs": 8117,
      "jenn": 8118,
      "rd": 8119,
      "ricul": 8120,
      "zed": 8121,
      "revised": 8122,
      "marc": 8123,
      "anny": 8124,
      "hosa": 8125,
      "organizers": 8126,
      "chairs": 8127,
      "collected": 8128,
      "odd": 8129,
      "punished": 8130,
      "demonstrations": 8131,
      "precise": 8132,
      "vigil": 8133,
      "emirates": 8134,
      "aj": 8135,
      "yo": 8136,
      "lepage": 8137,
      "bets": 8138,
      "feared": 8139,
      "intercept": 8140,
      "drivers": 8141,
      "rulings": 8142,
      "tested": 8143,
      "bombers": 8144,
      "bullet": 8145,
      "blocks": 8146,
      "demonstrate": 8147,
      "suspension": 8148,
      "solidarity": 8149,
      "deserves": 8150,
      "erupted": 8151,
      "![": 8152,
      "dow": 8153,
      "slim": 8154,
      "incent": 8155,
      "alan": 8156,
      "ading": 8157,
      "libr": 8158,
      "outgoing": 8159,
      "monument": 8160,
      "sanction": 8161,
      "nett": 8162,
      "negotiators": 8163,
      "launching": 8164,
      "amendments": 8165,
      "mirr": 8166,
      "revive": 8167,
      "cfpb": 8168,
      "innov": 8169,
      "atmo": 8170,
      "exists": 8171,
      "teaching": 8172,
      "finances": 8173,
      "palace": 8174,
      "1993": 8175,
      "clothes": 8176,
      "maxine": 8177,
      "argentina": 8178,
      "dishonest": 8179,
      "aphosa": 8180,
      "brook": 8181,
      "etc": 8182,
      "ucking": 8183,
      "drain": 8184,
      "barrel": 8185,
      "movements": 8186,
      "briefings": 8187,
      "luther": 8188,
      "ramaphosa": 8189,
      "settlements": 8190,
      "taylor": 8191,
      "pregnant": 8192,
      "subscribe": 8193,
      "bruce": 8194,
      "unilateral": 8195,
      "donation": 8196,
      "airline": 8197,
      "journalism": 8198,
      "determination": 8199,
      "packed": 8200,
      "recommended": 8201,
      "flex": 8202,
      "comparison": 8203,
      "perceived": 8204,
      "ean": 8205,
      "atri": 8206,
      "leon": 8207,
      "admission": 8208,
      "exceed": 8209,
      "strained": 8210,
      "roof": 8211,
      "qualify": 8212,
      "confusion": 8213,
      "battles": 8214,
      "admitting": 8215,
      "closures": 8216,
      "producing": 8217,
      "dutch": 8218,
      "integration": 8219,
      "rejects": 8220,
      "volunteers": 8221,
      "cotton": 8222,
      "fior": 8223,
      "jak": 8224,
      "tree": 8225,
      "oria": 8226,
      "aligned": 8227,
      "ilton": 8228,
      "secon": 8229,
      "adopt": 8230,
      "mothers": 8231,
      "blunt": 8232,
      "overcome": 8233,
      "observers": 8234,
      "flu": 8235,
      "highway": 8236,
      "economies": 8237,
      "developer": 8238,
      "contractor": 8239,
      "websites": 8240,
      "assassin": 8241,
      "territories": 8242,
      "continental": 8243,
      "premier": 8244,
      "datab": 8245,
      "edited": 8246,
      "lyak": 8247,
      "olas": 8248,
      "unbeliev": 8249,
      "dispar": 8250,
      "realized": 8251,
      "landmark": 8252,
      "aze": 8253,
      "waited": 8254,
      "jerry": 8255,
      "tribal": 8256,
      "tools": 8257,
      "kislyak": 8258,
      "genocide": 8259,
      "seconds": 8260,
      "){": 8261,
      "klan": 8262,
      "sight": 8263,
      "inev": 8264,
      "theft": 8265,
      "esc": 8266,
      "heck": 8267,
      "uner": 8268,
      "suing": 8269,
      "theyre": 8270,
      "assur": 8271,
      "cox": 8272,
      "subur": 8273,
      "concert": 8274,
      "litigation": 8275,
      "allegation": 8276,
      "stephan": 8277,
      "negotiation": 8278,
      "daesh": 8279,
      "reduction": 8280,
      "attribut": 8281,
      "administrator": 8282,
      "electricity": 8283,
      "pivot": 8284,
      "fuck": 8285,
      "reward": 8286,
      "alco": 8287,
      "amation": 8288,
      "ola": 8289,
      "aps": 8290,
      "auth": 8291,
      "ideological": 8292,
      "ibilities": 8293,
      "howard": 8294,
      "krist": 8295,
      "ennial": 8296,
      "frustration": 8297,
      "nikki": 8298,
      "category": 8299,
      "kuczynski": 8300,
      "cult": 8301,
      "lich": 8302,
      "pf": 8303,
      "unk": 8304,
      "urgent": 8305,
      "conced": 8306,
      "crush": 8307,
      "notion": 8308,
      "rence": 8309,
      "picking": 8310,
      "burr": 8311,
      "catastr": 8312,
      "progressives": 8313,
      "counterparts": 8314,
      "coordination": 8315,
      "drills": 8316,
      "isolated": 8317,
      "skeptical": 8318,
      "tus": 8319,
      "tel": 8320,
      "trag": 8321,
      "opens": 8322,
      "abol": 8323,
      "hasht": 8324,
      "brig": 8325,
      "permits": 8326,
      "inson": 8327,
      "barz": 8328,
      "fortune": 8329,
      "creates": 8330,
      "furthermore": 8331,
      "techni": 8332,
      "insisting": 8333,
      "1980s": 8334,
      "thugs": 8335,
      "hashtag": 8336,
      "dled": 8337,
      "eating": 8338,
      "mour": 8339,
      "wrest": 8340,
      "ero": 8341,
      "ente": 8342,
      "agno": 8343,
      "blm": 8344,
      "shred": 8345,
      "elites": 8346,
      "pharm": 8347,
      "captain": 8348,
      "expire": 8349,
      "thousand": 8350,
      "graphy": 8351,
      "approached": 8352,
      "rarely": 8353,
      "confidential": 8354,
      "lengthy": 8355,
      "savings": 8356,
      "separatist": 8357,
      "huffington": 8358,
      "optimistic": 8359,
      "legitimacy": 8360,
      "fiorina": 8361,
      "eed": 8362,
      "fights": 8363,
      "mm": 8364,
      "och": 8365,
      "tas": 8366,
      "tapped": 8367,
      "taught": 8368,
      "vit": 8369,
      "zing": 8370,
      "demean": 8371,
      "unnecessary": 8372,
      "weird": 8373,
      "keley": 8374,
      "afi": 8375,
      "obsess": 8376,
      "asser": 8377,
      "rational": 8378,
      "locations": 8379,
      "stops": 8380,
      "expenses": 8381,
      "persist": 8382,
      "rogers": 8383,
      "tunis": 8384,
      "alcohol": 8385,
      "67": 8386,
      "aung": 8387,
      "cdata": 8388,
      "lisa": 8389,
      "rist": 8390,
      "sac": 8391,
      "wau": 8392,
      "inher": 8393,
      "infamous": 8394,
      "wasser": 8395,
      "oversees": 8396,
      "exposing": 8397,
      "berkeley": 8398,
      "marke": 8399,
      "pressive": 8400,
      "factions": 8401,
      "rique": 8402,
      "arriving": 8403,
      "expectations": 8404,
      "celebrities": 8405,
      "outraged": 8406,
      "federation": 8407,
      "survivors": 8408,
      "uan": 8409,
      "ocaust": 8410,
      "holocaust": 8411,
      "homosex": 8412,
      "replacing": 8413,
      "technologies": 8414,
      "saleh": 8415,
      "tears": 8416,
      "mocking": 8417,
      "dismantle": 8418,
      "meltdown": 8419,
      "spray": 8420,
      "aclu": 8421,
      "illness": 8422,
      "repre": 8423,
      "diss": 8424,
      "disney": 8425,
      "reloc": 8426,
      "organizing": 8427,
      "hostage": 8428,
      "appointing": 8429,
      "hyster": 8430,
      "profession": 8431,
      "predomin": 8432,
      "corrects": 8433,
      "contentious": 8434,
      "administrative": 8435,
      "machines": 8436,
      "certific": 8437,
      "neighborhoods": 8438,
      "latinos": 8439,
      "constituents": 8440,
      "mare": 8441,
      "eds": 8442,
      "mons": 8443,
      "nationalists": 8444,
      "phony": 8445,
      "athlet": 8446,
      "transl": 8447,
      "prosecuted": 8448,
      "jihadist": 8449,
      "bathrooms": 8450,
      "intentionally": 8451,
      "sop": 8452,
      "ision": 8453,
      "sectors": 8454,
      "heated": 8455,
      "residence": 8456,
      "cloud": 8457,
      "whoever": 8458,
      "internationally": 8459,
      "score": 8460,
      "warn": 8461,
      "myster": 8462,
      "watson": 8463,
      "stepping": 8464,
      "surfaced": 8465,
      "propose": 8466,
      "generals": 8467,
      "misleading": 8468,
      "delivering": 8469,
      "convoy": 8470,
      "pounds": 8471,
      "avenue": 8472,
      "museum": 8473,
      "bash": 8474,
      "dating": 8475,
      "lun": 8476,
      "invo": 8477,
      "illeg": 8478,
      "iliate": 8479,
      "sect": 8480,
      "sabot": 8481,
      "cra": 8482,
      "scary": 8483,
      "arrive": 8484,
      "confirms": 8485,
      "kurz": 8486,
      "greek": 8487,
      "random": 8488,
      "autonomy": 8489,
      "helicopter": 8490,
      "consolid": 8491,
      "93": 8492,
      "fers": 8493,
      "kiev": 8494,
      "dems": 8495,
      "rescu": 8496,
      "empower": 8497,
      "whenever": 8498,
      "loop": 8499,
      "buf": 8500,
      "highlights": 8501,
      "passenger": 8502,
      "confused": 8503,
      "script": 8504,
      "principal": 8505,
      "tribun": 8506,
      "luxury": 8507,
      "highlighted": 8508,
      "acceler": 8509,
      "barnier": 8510,
      "ocean": 8511,
      "gdp": 8512,
      "rever": 8513,
      "escap": 8514,
      "modif": 8515,
      "crying": 8516,
      "steal": 8517,
      "landslide": 8518,
      "submarine": 8519,
      "universal": 8520,
      "pieces": 8521,
      "dogs": 8522,
      "gateway": 8523,
      "objective": 8524,
      "confronted": 8525,
      "wasserman": 8526,
      "illegals": 8527,
      "whit": 8528,
      "reply": 8529,
      "worship": 8530,
      "insky": 8531,
      "caps": 8532,
      "lining": 8533,
      "equival": 8534,
      "leverage": 8535,
      "pompe": 8536,
      "catastrop": 8537,
      "daw": 8538,
      "kath": 8539,
      "pump": 8540,
      "vile": 8541,
      "ternal": 8542,
      "marawi": 8543,
      "legislators": 8544,
      "hardly": 8545,
      "prising": 8546,
      "audit": 8547,
      "embarrassment": 8548,
      "endorsing": 8549,
      "bridges": 8550,
      "ignorance": 8551,
      "smooth": 8552,
      "dictatorship": 8553,
      "detect": 8554,
      "jennifer": 8555,
      "bump": 8556,
      "iency": 8557,
      "yer": 8558,
      "esy": 8559,
      "trash": 8560,
      "absent": 8561,
      "observ": 8562,
      "minim": 8563,
      "upheld": 8564,
      "securing": 8565,
      "overnight": 8566,
      "drink": 8567,
      "guter": 8568,
      "persons": 8569,
      "authorization": 8570,
      "foxnews": 8571,
      "trips": 8572,
      "birthday": 8573,
      "populations": 8574,
      "shinzo": 8575,
      "khal": 8576,
      "mol": 8577,
      "xy": 8578,
      "eding": 8579,
      "resulting": 8580,
      "ighth": 8581,
      "angers": 8582,
      "undercover": 8583,
      "deciding": 8584,
      "defic": 8585,
      "hunting": 8586,
      "contribution": 8587,
      "falsely": 8588,
      "surrounded": 8589,
      "implications": 8590,
      "boycot": 8591,
      "occasion": 8592,
      "fk": 8593,
      "scores": 8594,
      "revo": 8595,
      "chick": 8596,
      "umen": 8597,
      "mentally": 8598,
      "couples": 8599,
      "quid": 8600,
      "dubai": 8601,
      "covers": 8602,
      "clothing": 8603,
      "automakers": 8604,
      "junior": 8605,
      "deterior": 8606,
      "tsai": 8607,
      "incumbent": 8608,
      "(&": 8609,
      "gol": 8610,
      "pand": 8611,
      "tat": 8612,
      "tune": 8613,
      "yard": 8614,
      "orche": 8615,
      "opard": 8616,
      "abrupt": 8617,
      "doctr": 8618,
      "assigned": 8619,
      "corn": 8620,
      "marines": 8621,
      "boats": 8622,
      "barriers": 8623,
      "versus": 8624,
      "ripped": 8625,
      "handled": 8626,
      "iliation": 8627,
      "pretend": 8628,
      "administrations": 8629,
      "grassroots": 8630,
      "persuade": 8631,
      "stadium": 8632,
      "cdu": 8633,
      "tum": 8634,
      "tall": 8635,
      "yates": 8636,
      "bee": 8637,
      "advers": 8638,
      "atell": 8639,
      "excell": 8640,
      "appealed": 8641,
      "burns": 8642,
      "longest": 8643,
      "sharif": 8644,
      "applican": 8645,
      "historically": 8646,
      "troubled": 8647,
      "consulting": 8648,
      "congratul": 8649,
      "prosperity": 8650,
      "barzani": 8651,
      "aired": 8652,
      "csu": 8653,
      "eup": 8654,
      "gad": 8655,
      "hin": 8656,
      "ost": 8657,
      "raf": 8658,
      "stalled": 8659,
      "keen": 8660,
      "overthrow": 8661,
      "managers": 8662,
      "earn": 8663,
      "twenty": 8664,
      "limiting": 8665,
      "schul": 8666,
      "issuing": 8667,
      "soul": 8668,
      "childhood": 8669,
      "solved": 8670,
      "striking": 8671,
      "1994": 8672,
      "1999": 8673,
      "tourists": 8674,
      "achieved": 8675,
      "mohamed": 8676,
      "reflects": 8677,
      "bb": 8678,
      "rc": 8679,
      "rus": 8680,
      "rho": 8681,
      "whining": 8682,
      "iano": 8683,
      "guant": 8684,
      "developments": 8685,
      "simon": 8686,
      "complaining": 8687,
      "delays": 8688,
      "method": 8689,
      "quietly": 8690,
      "appreciate": 8691,
      "evalu": 8692,
      "methods": 8693,
      "9th": 8694,
      "dum": 8695,
      "ih": 8696,
      "nutr": 8697,
      "lemon": 8698,
      "chile": 8699,
      "notably": 8700,
      "minded": 8701,
      "elev": 8702,
      "contempt": 8703,
      "jeopard": 8704,
      "tense": 8705,
      "authoritarian": 8706,
      "nightmare": 8707,
      "doubled": 8708,
      "freedoms": 8709,
      "1998": 8710,
      "troubling": 8711,
      "coordinated": 8712,
      "sided": 8713,
      "inn": 8714,
      "arations": 8715,
      "assured": 8716,
      "icum": 8717,
      "prise": 8718,
      "cohen": 8719,
      "norway": 8720,
      "substance": 8721,
      "patient": 8722,
      "screening": 8723,
      "benefic": 8724,
      "torn": 8725,
      "celebrating": 8726,
      "branded": 8727,
      "beaten": 8728,
      "tantrum": 8729,
      "convenient": 8730,
      "rumors": 8731,
      "festival": 8732,
      "adequate": 8733,
      "cnbc": 8734,
      "hob": 8735,
      "roo": 8736,
      "sends": 8737,
      "remind": 8738,
      "atroc": 8739,
      "amy": 8740,
      "franch": 8741,
      "emic": 8742,
      "interrog": 8743,
      "formerly": 8744,
      "breath": 8745,
      "surgery": 8746,
      "facto": 8747,
      "nightclub": 8748,
      "descript": 8749,
      "electors": 8750,
      "similarly": 8751,
      "absence": 8752,
      "pompeo": 8753,
      "cart": 8754,
      "duck": 8755,
      "nair": 8756,
      "vy": 8757,
      "recalled": 8758,
      "encry": 8759,
      "alloc": 8760,
      "worries": 8761,
      "hernandez": 8762,
      "hinged": 8763,
      "decides": 8764,
      "1960": 8765,
      "features": 8766,
      "transcript": 8767,
      "1992": 8768,
      "reliable": 8769,
      "prayers": 8770,
      "attract": 8771,
      "filessupport": 8772,
      "penalties": 8773,
      "patriotic": 8774,
      "recipients": 8775,
      "reconciliation": 8776,
      "cen": 8777,
      "kon": 8778,
      "vor": 8779,
      "enrique": 8780,
      "stabil": 8781,
      "alarmed": 8782,
      "deut": 8783,
      "brz": 8784,
      "somewhere": 8785,
      "justified": 8786,
      "forever": 8787,
      "steele": 8788,
      "stealing": 8789,
      "2017trump": 8790,
      "chester": 8791,
      "speakers": 8792,
      "larry": 8793,
      "loser": 8794,
      "nonprofit": 8795,
      "mistakes": 8796,
      "rogue": 8797,
      "touched": 8798,
      "habit": 8799,
      "alpha": 8800,
      "88": 8801,
      "dian": 8802,
      "gag": 8803,
      "kit": 8804,
      "isen": 8805,
      "cel": 8806,
      "grip": 8807,
      "derail": 8808,
      "peoples": 8809,
      "visible": 8810,
      "desc": 8811,
      "hillarys": 8812,
      "barry": 8813,
      "costly": 8814,
      "salary": 8815,
      "personality": 8816,
      "jeffrey": 8817,
      "embarrassed": 8818,
      "accuracy": 8819,
      "hanging": 8820,
      "dressed": 8821,
      "hawk": 8822,
      "stretch": 8823,
      "prevail": 8824,
      "protocol": 8825,
      "concessions": 8826,
      "71": 8827,
      "cure": 8828,
      "een": 8829,
      "hint": 8830,
      "’”": 8831,
      "recovered": 8832,
      "arson": 8833,
      "bec": 8834,
      "metr": 8835,
      "mediter": 8836,
      "sert": 8837,
      "legend": 8838,
      "responds": 8839,
      "signaled": 8840,
      "churches": 8841,
      "lobbyist": 8842,
      "comedy": 8843,
      "sadly": 8844,
      "reminder": 8845,
      "infowarscom": 8846,
      "tactic": 8847,
      "shouting": 8848,
      "slogan": 8849,
      "apolis": 8850,
      "mediterran": 8851,
      "lers": 8852,
      "xin": 8853,
      "icating": 8854,
      "heim": 8855,
      "fein": 8856,
      "ounce": 8857,
      "scape": 8858,
      "surface": 8859,
      "pays": 8860,
      "lesson": 8861,
      "transactions": 8862,
      "arrival": 8863,
      "purge": 8864,
      "bankers": 8865,
      "filtr": 8866,
      "delivery": 8867,
      "earthquake": 8868,
      "shouted": 8869,
      "nasr": 8870,
      "elaborate": 8871,
      "coffee": 8872,
      "cbo": 8873,
      "foss": 8874,
      "morgan": 8875,
      "nab": 8876,
      "santa": 8877,
      "satell": 8878,
      "wald": 8879,
      "forbid": 8880,
      "irresponsible": 8881,
      "opio": 8882,
      "clay": 8883,
      "plo": 8884,
      "rauner": 8885,
      "epid": 8886,
      "courtesy": 8887,
      "factors": 8888,
      "islamabad": 8889,
      "array": 8890,
      "scram": 8891,
      "wondering": 8892,
      "warnings": 8893,
      "bloody": 8894,
      "assertion": 8895,
      "arrangement": 8896,
      "kabul": 8897,
      "maddow": 8898,
      "hook": 8899,
      "arpa": 8900,
      "dealt": 8901,
      "bigot": 8902,
      "christianity": 8903,
      "weaken": 8904,
      "producers": 8905,
      "lgbtq": 8906,
      "kuwait": 8907,
      "sustained": 8908,
      "selection": 8909,
      "interfered": 8910,
      "opioid": 8911,
      "],": 8912,
      "bard": 8913,
      "dimin": 8914,
      "jab": 8915,
      "mud": 8916,
      "mpic": 8917,
      "arsen": 8918,
      "imam": 8919,
      "gel": 8920,
      "appre": 8921,
      "aceut": 8922,
      "finicum": 8923,
      "colin": 8924,
      "clearance": 8925,
      "supremacy": 8926,
      "patriots": 8927,
      "isnt": 8928,
      "hacks": 8929,
      "respondents": 8930,
      "correctness": 8931,
      "participating": 8932,
      "witnessed": 8933,
      "kaeper": 8934,
      "mount": 8935,
      "slave": 8936,
      "graduate": 8937,
      "^^^^": 8938,
      "echoed": 8939,
      "tusk": 8940,
      "arpaio": 8941,
      "dale": 8942,
      "sli": 8943,
      "thres": 8944,
      "enrich": 8945,
      "edward": 8946,
      "chat": 8947,
      "constructive": 8948,
      "overseeing": 8949,
      "identification": 8950,
      "brib": 8951,
      "syd": 8952,
      "uez": 8953,
      "nord": 8954,
      "signals": 8955,
      "calcul": 8956,
      "dependent": 8957,
      "appointments": 8958,
      "appropri": 8959,
      "awards": 8960,
      "rushed": 8961,
      "deliberately": 8962,
      "intimidation": 8963,
      "plaintiffs": 8964,
      "mediterranean": 8965,
      "fid": 8966,
      "ypg": 8967,
      "unhinged": 8968,
      "moil": 8969,
      "kem": 8970,
      "obi": 8971,
      "forming": 8972,
      "lling": 8973,
      "turmoil": 8974,
      "nerv": 8975,
      "ashamed": 8976,
      "emailed": 8977,
      "caut": 8978,
      "risen": 8979,
      "filib": 8980,
      "addresses": 8981,
      "gonz": 8982,
      "examine": 8983,
      "stunned": 8984,
      "enjoyed": 8985,
      "tolerance": 8986,
      "czech": 8987,
      "unanimously": 8988,
      "bernardino": 8989,
      "pharmaceut": 8990,
      "fossil": 8991,
      "apprent": 8992,
      "74": 8993,
      "79": 8994,
      "bis": 8995,
      "jc": 8996,
      "entity": 8997,
      "herald": 8998,
      "retreat": 8999,
      "terrifying": 9000,
      "dealers": 9001,
      "rug": 9002,
      "libertar": 9003,
      "holes": 9004,
      "saudis": 9005,
      "dana": 9006,
      "credential": 9007,
      "treating": 9008,
      "insured": 9009,
      "bragged": 9010,
      "staunch": 9011,
      "nuts": 9012,
      "brzez": 9013,
      "lus": 9014,
      "mong": 9015,
      "til": 9016,
      "zan": 9017,
      "anamo": 9018,
      "forgotten": 9019,
      "tering": 9020,
      "gro": 9021,
      "feinstein": 9022,
      "izz": 9023,
      "serial": 9024,
      "tyr": 9025,
      "annually": 9026,
      "organize": 9027,
      "angerer": 9028,
      "wishes": 9029,
      "unfairly": 9030,
      "charlotte": 9031,
      "pockets": 9032,
      "brennan": 9033,
      "dubbed": 9034,
      "scalise": 9035,
      "guantanamo": 9036,
      "onies": 9037,
      "seize": 9038,
      "uncovered": 9039,
      "ooding": 9040,
      "sport": 9041,
      "flooding": 9042,
      "boris": 9043,
      "filings": 9044,
      "alike": 9045,
      "renewable": 9046,
      "jihadists": 9047,
      "chanting": 9048,
      "restaurants": 9049,
      "sydney": 9050,
      "winter": 9051,
      "het": 9052,
      "ambit": 9053,
      "illing": 9054,
      "alling": 9055,
      "obstruct": 9056,
      "polish": 9057,
      "memory": 9058,
      "charlie": 9059,
      "wedding": 9060,
      "mature": 9061,
      "diagno": 9062,
      "debbie": 9063,
      "ifications": 9064,
      "predictable": 9065,
      "kneel": 9066,
      "ambitious": 9067,
      "gps": 9068,
      "rian": 9069,
      "ske": 9070,
      "defect": 9071,
      "umes": 9072,
      "verify": 9073,
      "atemal": 9074,
      "ighter": 9075,
      "attende": 9076,
      "cauc": 9077,
      "anna": 9078,
      "guatemal": 9079,
      "steady": 9080,
      "cruel": 9081,
      "occupy": 9082,
      "bragging": 9083,
      "routinely": 9084,
      "deplorable": 9085,
      "olympic": 9086,
      "discredit": 9087,
      "dor": 9088,
      "stig": 9089,
      "itzer": 9090,
      "icks": 9091,
      "seal": 9092,
      "haz": 9093,
      "computers": 9094,
      "milk": 9095,
      "insists": 9096,
      "locker": 9097,
      "patch": 9098,
      "belt": 9099,
      "statue": 9100,
      "1995": 9101,
      "motive": 9102,
      "palestine": 9103,
      "preferred": 9104,
      "consultant": 9105,
      "reversed": 9106,
      "sacred": 9107,
      "xinhua": 9108,
      "kaepernick": 9109,
      "din": 9110,
      "enact": 9111,
      "amen": 9112,
      "illed": 9113,
      "acks": 9114,
      "kings": 9115,
      "dual": 9116,
      "rachel": 9117,
      "pleased": 9118,
      "structuring": 9119,
      "austin": 9120,
      "homeless": 9121,
      "channels": 9122,
      "indonesian": 9123,
      "bone": 9124,
      "sits": 9125,
      "oni": 9126,
      "rebell": 9127,
      "aret": 9128,
      "worsen": 9129,
      "nowhere": 9130,
      "prelim": 9131,
      "mcname": 9132,
      "agreeing": 9133,
      "hurting": 9134,
      "doug": 9135,
      "faster": 9136,
      "morales": 9137,
      "brutality": 9138,
      "ambitions": 9139,
      "conscious": 9140,
      "mcnamee": 9141,
      "cass": 9142,
      "iac": 9143,
      "kaya": 9144,
      "rank": 9145,
      "uous": 9146,
      "invent": 9147,
      "owitz": 9148,
      "outlined": 9149,
      "ull": 9150,
      "soever": 9151,
      "affir": 9152,
      "donnell": 9153,
      "timeline": 9154,
      "operative": 9155,
      "charitable": 9156,
      "cheer": 9157,
      "nevertheless": 9158,
      "solar": 9159,
      "ierre": 9160,
      "victories": 9161,
      "customer": 9162,
      "mounting": 9163,
      "sdk": 9164,
      "severely": 9165,
      "interfering": 9166,
      "compassion": 9167,
      "aviation": 9168,
      "dissident": 9169,
      "2j": 9170,
      "iq": 9171,
      "zucker": 9172,
      "enjo": 9173,
      "arling": 9174,
      "ammun": 9175,
      "usively": 9176,
      "ophy": 9177,
      "probes": 9178,
      "polar": 9179,
      "metal": 9180,
      "relent": 9181,
      "millennial": 9182,
      "wellness": 9183,
      "harare": 9184,
      "featuring": 9185,
      "damages": 9186,
      "banner": 9187,
      "battling": 9188,
      "restroom": 9189,
      "challenger": 9190,
      "fixed": 9191,
      "procedural": 9192,
      "loaded": 9193,
      "smuggling": 9194,
      "yahoo": 9195,
      "binding": 9196,
      "ec": 9197,
      "kate": 9198,
      "pc": 9199,
      "enko": 9200,
      "heather": 9201,
      "unarmed": 9202,
      "ulent": 9203,
      "counting": 9204,
      "cake": 9205,
      "moroc": 9206,
      "collabor": 9207,
      "journey": 9208,
      "sharpton": 9209,
      "exploit": 9210,
      "tolerate": 9211,
      "evangel": 9212,
      "blatant": 9213,
      "interpretation": 9214,
      "brzezinski": 9215,
      "caucuses": 9216,
      "preliminary": 9217,
      "95": 9218,
      "yi": 9219,
      "tribe": 9220,
      "destructive": 9221,
      "pep": 9222,
      "withdrew": 9223,
      "repatri": 9224,
      "plagu": 9225,
      "affirm": 9226,
      "fernandez": 9227,
      "warfare": 9228,
      "harbor": 9229,
      "releases": 9230,
      "bases": 9231,
      "firmly": 9232,
      "injury": 9233,
      "condemning": 9234,
      "painting": 9235,
      "windows": 9236,
      "eliminating": 9237,
      "surprisingly": 9238,
      "occasions": 9239,
      "theater": 9240,
      "orchestr": 9241,
      "nairobi": 9242,
      "jess": 9243,
      "nh": 9244,
      "wright": 9245,
      "idlib": 9246,
      "semin": 9247,
      "pri": 9248,
      "offshore": 9249,
      "disproportion": 9250,
      "fax": 9251,
      "subcommittee": 9252,
      "reviews": 9253,
[...]
